-- begin_signature
-- weight_rom(DEPTH
-- 1280
-- DATA_WIDTH
-- 8
-- ADDR_WIDTH
-- 11
-- INIT_FILE
-- "w2_int8.hex")
-- end_signature
WIDTH=8;
DEPTH=1280;

ADDRESS_RADIX=UNS;
DATA_RADIX=BIN;

CONTENT BEGIN
	1279 :	11000111;
	1278 :	11000001;
	1277 :	00001001;
	1276 :	01001011;
	1275 :	11111010;
	1274 :	00000000;
	1273 :	00000110;
	1272 :	00010110;
	1271 :	11100110;
	1270 :	11101111;
	1269 :	00000001;
	1268 :	00000000;
	1267 :	11110001;
	1266 :	10110011;
	1265 :	00011011;
	1264 :	11100110;
	1263 :	01011110;
	1262 :	00010110;
	1261 :	00011001;
	1260 :	00011101;
	1259 :	00100111;
	1258 :	10110100;
	1257 :	11010111;
	1256 :	10111011;
	1255 :	00100110;
	1254 :	11101001;
	1253 :	11011101;
	1252 :	11101000;
	1251 :	00010011;
	1250 :	11110110;
	1249 :	00011101;
	1248 :	11001100;
	1247 :	00110001;
	1246 :	00010110;
	1245 :	10111101;
	1244 :	00011110;
	1243 :	00101100;
	1242 :	11100101;
	1241 :	00110001;
	1240 :	11101000;
	1239 :	00000011;
	1238 :	11111001;
	1237 :	11100101;
	1236 :	11111110;
	1235 :	10110010;
	1234 :	11100100;
	1233 :	11101110;
	1232 :	00011111;
	1231 :	11011100;
	1230 :	11101111;
	1229 :	11100011;
	1228 :	00110100;
	1227 :	00011100;
	1226 :	11011110;
	1225 :	11100101;
	1224 :	00100111;
	1223 :	11110001;
	1222 :	00000001;
	1221 :	00100000;
	1220 :	00000100;
	1219 :	11101100;
	1218 :	11110011;
	1217 :	11110011;
	1216 :	11101011;
	1215 :	11100010;
	1214 :	00100001;
	1213 :	00011100;
	1212 :	10110101;
	1211 :	00100110;
	1210 :	00111010;
	1209 :	00011111;
	1208 :	00011111;
	1207 :	00101100;
	1206 :	00000010;
	1205 :	00110101;
	1204 :	00000010;
	1203 :	00000111;
	1202 :	11110011;
	1201 :	11100000;
	1200 :	01001111;
	1199 :	11100110;
	1198 :	00011000;
	1197 :	11101100;
	1196 :	00110101;
	1195 :	11010111;
	1194 :	00100011;
	1193 :	00010001;
	1192 :	01011001;
	1191 :	11110011;
	1190 :	00111001;
	1189 :	00000101;
	1188 :	10000011;
	1187 :	00011000;
	1186 :	00010100;
	1185 :	11011110;
	1184 :	11001111;
	1183 :	01001101;
	1182 :	00100000;
	1181 :	00011000;
	1180 :	11110000;
	1179 :	11101011;
	1178 :	10110011;
	1177 :	11111010;
	1176 :	00101100;
	1175 :	11100110;
	1174 :	11101111;
	1173 :	00000111;
	1172 :	00001111;
	1171 :	01001001;
	1170 :	00100001;
	1169 :	01001001;
	1168 :	00010000;
	1167 :	11011000;
	1166 :	00111101;
	1165 :	10101110;
	1164 :	11101101;
	1163 :	11110101;
	1162 :	00100001;
	1161 :	11101110;
	1160 :	11011011;
	1159 :	11111111;
	1158 :	00110110;
	1157 :	11110110;
	1156 :	00000101;
	1155 :	11111110;
	1154 :	11111110;
	1153 :	11000001;
	1152 :	11100011;
	1151 :	11111011;
	1150 :	00000100;
	1149 :	00111001;
	1148 :	11111110;
	1147 :	00010111;
	1146 :	11011100;
	1145 :	00101111;
	1144 :	00010000;
	1143 :	00000001;
	1142 :	11110100;
	1141 :	11011100;
	1140 :	11110110;
	1139 :	00001000;
	1138 :	00111110;
	1137 :	11101011;
	1136 :	10101001;
	1135 :	00001001;
	1134 :	11101010;
	1133 :	00001011;
	1132 :	11001011;
	1131 :	00000010;
	1130 :	00011101;
	1129 :	11100011;
	1128 :	11011110;
	1127 :	00101010;
	1126 :	11101000;
	1125 :	10100100;
	1124 :	11100100;
	1123 :	10100001;
	1122 :	00110111;
	1121 :	11010111;
	1120 :	11111100;
	1119 :	00001010;
	1118 :	11111110;
	1117 :	11100111;
	1116 :	11110101;
	1115 :	00110010;
	1114 :	00001100;
	1113 :	11101011;
	1112 :	10111010;
	1111 :	00110000;
	1110 :	11011100;
	1109 :	11000110;
	1108 :	00101010;
	1107 :	11100001;
	1106 :	00110101;
	1105 :	11101110;
	1104 :	11001110;
	1103 :	00000110;
	1102 :	11110100;
	1101 :	00011010;
	1100 :	00011111;
	1099 :	01000101;
	1098 :	00110011;
	1097 :	11010101;
	1096 :	11111001;
	1095 :	00100000;
	1094 :	00000100;
	1093 :	11110110;
	1092 :	11101100;
	1091 :	11111111;
	1090 :	11011101;
	1089 :	00000101;
	1088 :	11100111;
	1087 :	01000111;
	1086 :	11101101;
	1085 :	00001111;
	1084 :	10111111;
	1083 :	11111010;
	1082 :	11011111;
	1081 :	00101101;
	1080 :	11010001;
	1079 :	11110110;
	1078 :	11101100;
	1077 :	00011100;
	1076 :	11111101;
	1075 :	00110010;
	1074 :	11110110;
	1073 :	00001001;
	1072 :	11011010;
	1071 :	00010000;
	1070 :	00010110;
	1069 :	00011001;
	1068 :	00010011;
	1067 :	11000000;
	1066 :	11011101;
	1065 :	00001101;
	1064 :	00011110;
	1063 :	00010111;
	1062 :	00100111;
	1061 :	00011000;
	1060 :	00001000;
	1059 :	11011111;
	1058 :	11111010;
	1057 :	00110111;
	1056 :	10110111;
	1055 :	00000000;
	1054 :	11101001;
	1053 :	11100111;
	1052 :	11011101;
	1051 :	00010000;
	1050 :	11110110;
	1049 :	11110000;
	1048 :	00000110;
	1047 :	11001111;
	1046 :	00000111;
	1045 :	00011100;
	1044 :	11001001;
	1043 :	10110011;
	1042 :	11100101;
	1041 :	10001101;
	1040 :	00000001;
	1039 :	11101101;
	1038 :	00000010;
	1037 :	00000011;
	1036 :	00000110;
	1035 :	01000001;
	1034 :	00010100;
	1033 :	00100001;
	1032 :	11110100;
	1031 :	11010101;
	1030 :	11101110;
	1029 :	11010110;
	1028 :	11001111;
	1027 :	10011111;
	1026 :	00100001;
	1025 :	10101000;
	1024 :	11111000;
	1023 :	00010111;
	1022 :	00000100;
	1021 :	11100000;
	1020 :	11011110;
	1019 :	00000111;
	1018 :	11111000;
	1017 :	11101111;
	1016 :	00111111;
	1015 :	00011110;
	1014 :	11011110;
	1013 :	00101000;
	1012 :	00011001;
	1011 :	11111011;
	1010 :	00011110;
	1009 :	11110011;
	1008 :	11011100;
	1007 :	00101100;
	1006 :	11111001;
	1005 :	00111101;
	1004 :	11001111;
	1003 :	11011010;
	1002 :	00100100;
	1001 :	00100101;
	1000 :	00101001;
	999 :	11011010;
	998 :	11100011;
	997 :	00000001;
	996 :	00001101;
	995 :	11011111;
	994 :	11111001;
	993 :	11111000;
	992 :	01000100;
	991 :	11100011;
	990 :	11100111;
	989 :	01100010;
	988 :	00011100;
	987 :	11010001;
	986 :	10101100;
	985 :	11101010;
	984 :	00011110;
	983 :	00001010;
	982 :	00001001;
	981 :	11010110;
	980 :	11011010;
	979 :	01111101;
	978 :	11110000;
	977 :	11011000;
	976 :	00001001;
	975 :	00001010;
	974 :	00011101;
	973 :	11011110;
	972 :	00011101;
	971 :	00001000;
	970 :	11010001;
	969 :	00011001;
	968 :	00010000;
	967 :	10101001;
	966 :	11010111;
	965 :	01000101;
	964 :	00011110;
	963 :	00001111;
	962 :	00110000;
	961 :	11110000;
	960 :	00011110;
	959 :	00000100;
	958 :	11110001;
	957 :	00001000;
	956 :	00011011;
	955 :	00011001;
	954 :	00101100;
	953 :	00001000;
	952 :	00110101;
	951 :	00000010;
	950 :	11011011;
	949 :	00011101;
	948 :	11100100;
	947 :	00000000;
	946 :	11100101;
	945 :	11101100;
	944 :	11110101;
	943 :	00001001;
	942 :	00011001;
	941 :	11110111;
	940 :	11001010;
	939 :	11111000;
	938 :	00111110;
	937 :	00010010;
	936 :	01000101;
	935 :	10100010;
	934 :	11111000;
	933 :	11100100;
	932 :	00100000;
	931 :	01010100;
	930 :	11101001;
	929 :	11011011;
	928 :	00000101;
	927 :	00001110;
	926 :	00000110;
	925 :	00011100;
	924 :	11011011;
	923 :	00001001;
	922 :	00100000;
	921 :	01010010;
	920 :	11000001;
	919 :	00011100;
	918 :	00000100;
	917 :	11110111;
	916 :	00011110;
	915 :	11010000;
	914 :	11110101;
	913 :	00110001;
	912 :	00111000;
	911 :	00000000;
	910 :	11101011;
	909 :	00111101;
	908 :	11110000;
	907 :	11100100;
	906 :	11101100;
	905 :	00001001;
	904 :	00101101;
	903 :	11111100;
	902 :	11101111;
	901 :	11110001;
	900 :	11101011;
	899 :	00110110;
	898 :	00010101;
	897 :	00010010;
	896 :	00011000;
	895 :	00111110;
	894 :	11101010;
	893 :	00001101;
	892 :	11111111;
	891 :	00001110;
	890 :	11111111;
	889 :	00011101;
	888 :	00010001;
	887 :	11110011;
	886 :	00011010;
	885 :	11011111;
	884 :	00100110;
	883 :	00001000;
	882 :	00000100;
	881 :	11110011;
	880 :	11111111;
	879 :	11101111;
	878 :	00001011;
	877 :	00010010;
	876 :	11000111;
	875 :	00010111;
	874 :	11100101;
	873 :	11100110;
	872 :	00000010;
	871 :	11110010;
	870 :	00000110;
	869 :	00110000;
	868 :	00000100;
	867 :	00011101;
	866 :	00001000;
	865 :	00101010;
	864 :	11111111;
	863 :	11101010;
	862 :	00011100;
	861 :	11001110;
	860 :	11100111;
	859 :	00000110;
	858 :	00000111;
	857 :	11110101;
	856 :	00010110;
	855 :	00000000;
	854 :	11011001;
	853 :	11110011;
	852 :	00011100;
	851 :	11110001;
	850 :	00101001;
	849 :	00110000;
	848 :	00011100;
	847 :	11101011;
	846 :	10111111;
	845 :	00000011;
	844 :	11110000;
	843 :	11000010;
	842 :	11111001;
	841 :	10101011;
	840 :	00100111;
	839 :	00001001;
	838 :	00001011;
	837 :	11111110;
	836 :	11111000;
	835 :	11011101;
	834 :	00000110;
	833 :	11111000;
	832 :	00110111;
	831 :	00100011;
	830 :	11111001;
	829 :	00000111;
	828 :	00011111;
	827 :	11110111;
	826 :	11110001;
	825 :	10111000;
	824 :	11100011;
	823 :	00011111;
	822 :	00011001;
	821 :	10010000;
	820 :	00100110;
	819 :	11011000;
	818 :	11010101;
	817 :	11001100;
	816 :	11101100;
	815 :	00110001;
	814 :	00111000;
	813 :	00000110;
	812 :	11010011;
	811 :	00000001;
	810 :	11101110;
	809 :	11101011;
	808 :	11001110;
	807 :	00111001;
	806 :	11010111;
	805 :	00101001;
	804 :	00011110;
	803 :	11110100;
	802 :	00001111;
	801 :	11101101;
	800 :	11101110;
	799 :	11111011;
	798 :	00100100;
	797 :	11110101;
	796 :	00100111;
	795 :	00111010;
	794 :	00011101;
	793 :	00000111;
	792 :	00000010;
	791 :	01001100;
	790 :	00101010;
	789 :	00001101;
	788 :	11101111;
	787 :	00000011;
	786 :	11101101;
	785 :	10110100;
	784 :	11100101;
	783 :	00010000;
	782 :	11110111;
	781 :	11000011;
	780 :	00010001;
	779 :	11101110;
	778 :	01000110;
	777 :	11001011;
	776 :	00010010;
	775 :	00001110;
	774 :	11111000;
	773 :	00000001;
	772 :	00110110;
	771 :	11111101;
	770 :	11100111;
	769 :	01000000;
	768 :	00010110;
	767 :	00011110;
	766 :	11000111;
	765 :	00100110;
	764 :	00000101;
	763 :	01001101;
	762 :	00101101;
	761 :	11110111;
	760 :	00010110;
	759 :	11110111;
	758 :	10101100;
	757 :	01100010;
	756 :	11000010;
	755 :	01010001;
	754 :	11111111;
	753 :	01111111;
	752 :	01100011;
	751 :	11101011;
	750 :	00000100;
	749 :	11101101;
	748 :	01111011;
	747 :	11111000;
	746 :	11101110;
	745 :	11011110;
	744 :	00101111;
	743 :	11111111;
	742 :	00001101;
	741 :	01100110;
	740 :	11111111;
	739 :	11001111;
	738 :	11111001;
	737 :	11011110;
	736 :	11001100;
	735 :	11100110;
	734 :	00000101;
	733 :	11101001;
	732 :	11001101;
	731 :	00110010;
	730 :	01000010;
	729 :	00111111;
	728 :	11010010;
	727 :	11000000;
	726 :	11100100;
	725 :	11110111;
	724 :	11111011;
	723 :	01000000;
	722 :	00110000;
	721 :	11011010;
	720 :	11111000;
	719 :	11011011;
	718 :	00011010;
	717 :	00100001;
	716 :	11111101;
	715 :	00011101;
	714 :	11110111;
	713 :	11101010;
	712 :	11110001;
	711 :	00000011;
	710 :	00011000;
	709 :	00000111;
	708 :	00000101;
	707 :	00110001;
	706 :	11010010;
	705 :	00000100;
	704 :	00000000;
	703 :	00011100;
	702 :	10110101;
	701 :	11101001;
	700 :	00000100;
	699 :	11111111;
	698 :	00001111;
	697 :	11111101;
	696 :	00011000;
	695 :	00000000;
	694 :	11110100;
	693 :	00001110;
	692 :	11110011;
	691 :	00001011;
	690 :	11110110;
	689 :	00011001;
	688 :	00100111;
	687 :	00000100;
	686 :	00001000;
	685 :	00010111;
	684 :	11111111;
	683 :	11110011;
	682 :	00011000;
	681 :	11110101;
	680 :	00001111;
	679 :	00001001;
	678 :	11010001;
	677 :	00111101;
	676 :	00001111;
	675 :	11001100;
	674 :	11111001;
	673 :	00110110;
	672 :	11010011;
	671 :	00111100;
	670 :	10111011;
	669 :	00111100;
	668 :	00000011;
	667 :	11000100;
	666 :	11011100;
	665 :	00011000;
	664 :	11111110;
	663 :	00100010;
	662 :	00100100;
	661 :	11101000;
	660 :	00011010;
	659 :	00011000;
	658 :	10010110;
	657 :	00100100;
	656 :	11111100;
	655 :	11110110;
	654 :	11111000;
	653 :	00001111;
	652 :	00001011;
	651 :	00100101;
	650 :	00100111;
	649 :	11110011;
	648 :	00111011;
	647 :	11011110;
	646 :	00011000;
	645 :	01000000;
	644 :	00000101;
	643 :	11111010;
	642 :	10011011;
	641 :	00000010;
	640 :	11010000;
	639 :	00001010;
	638 :	00101111;
	637 :	01100100;
	636 :	11011101;
	635 :	00011110;
	634 :	00000110;
	633 :	11011011;
	632 :	11111110;
	631 :	00000000;
	630 :	11110111;
	629 :	00001000;
	628 :	11010111;
	627 :	10111111;
	626 :	11001100;
	625 :	11100010;
	624 :	11011110;
	623 :	10000001;
	622 :	00110001;
	621 :	00100010;
	620 :	11011011;
	619 :	00010011;
	618 :	01001000;
	617 :	11110010;
	616 :	11111100;
	615 :	00000111;
	614 :	00100111;
	613 :	11111100;
	612 :	11101010;
	611 :	00100110;
	610 :	00110110;
	609 :	00101001;
	608 :	00110001;
	607 :	11111110;
	606 :	00001011;
	605 :	11001000;
	604 :	00110100;
	603 :	00011100;
	602 :	11101010;
	601 :	11000110;
	600 :	00100000;
	599 :	00011011;
	598 :	11111111;
	597 :	00010101;
	596 :	00000101;
	595 :	11101000;
	594 :	11101010;
	593 :	00001001;
	592 :	00100100;
	591 :	11101100;
	590 :	11111011;
	589 :	11001101;
	588 :	01001000;
	587 :	00011100;
	586 :	11010011;
	585 :	00010001;
	584 :	00101110;
	583 :	00011001;
	582 :	00100011;
	581 :	11111101;
	580 :	11110110;
	579 :	10101010;
	578 :	00101110;
	577 :	11110011;
	576 :	11110010;
	575 :	11111001;
	574 :	00010100;
	573 :	00010011;
	572 :	00110111;
	571 :	11101001;
	570 :	10111110;
	569 :	00000010;
	568 :	00011010;
	567 :	11001100;
	566 :	00100010;
	565 :	00100101;
	564 :	11111011;
	563 :	00010101;
	562 :	11010100;
	561 :	00010101;
	560 :	11101010;
	559 :	00001110;
	558 :	11110010;
	557 :	00001111;
	556 :	11100100;
	555 :	11111110;
	554 :	11010100;
	553 :	11100101;
	552 :	00000101;
	551 :	11101000;
	550 :	11100010;
	549 :	11000100;
	548 :	11101010;
	547 :	00101110;
	546 :	00000011;
	545 :	00100000;
	544 :	01001011;
	543 :	00110010;
	542 :	00110100;
	541 :	00010111;
	540 :	11110010;
	539 :	11101111;
	538 :	11011011;
	537 :	11111101;
	536 :	00001000;
	535 :	11011011;
	534 :	00010110;
	533 :	00110111;
	532 :	10111100;
	531 :	00000111;
	530 :	00110000;
	529 :	01000011;
	528 :	10110100;
	527 :	11000001;
	526 :	11110111;
	525 :	11010001;
	524 :	11110010;
	523 :	11001100;
	522 :	11101111;
	521 :	11100011;
	520 :	11100110;
	519 :	00001100;
	518 :	11101100;
	517 :	11101000;
	516 :	11111101;
	515 :	11110100;
	514 :	11111001;
	513 :	00011000;
	512 :	11100111;
	511 :	00110000;
	510 :	00100000;
	509 :	11011100;
	508 :	11100011;
	507 :	11101110;
	506 :	00100101;
	505 :	00011100;
	504 :	00110111;
	503 :	11110100;
	502 :	00110101;
	501 :	11110010;
	500 :	01010011;
	499 :	00110100;
	498 :	11011100;
	497 :	11101011;
	496 :	00010111;
	495 :	00100110;
	494 :	10110010;
	493 :	11101011;
	492 :	00101000;
	491 :	00101100;
	490 :	00000011;
	489 :	00110010;
	488 :	11101100;
	487 :	10111111;
	486 :	11101101;
	485 :	11101100;
	484 :	11100000;
	483 :	11011111;
	482 :	00000110;
	481 :	00000001;
	480 :	00000011;
	479 :	10111100;
	478 :	00011101;
	477 :	00101010;
	476 :	10011011;
	475 :	11011010;
	474 :	00000010;
	473 :	00111000;
	472 :	00011101;
	471 :	11111011;
	470 :	01011000;
	469 :	11111010;
	468 :	00010110;
	467 :	11100110;
	466 :	11001111;
	465 :	11110100;
	464 :	00100010;
	463 :	11000110;
	462 :	00001000;
	461 :	00000001;
	460 :	00010010;
	459 :	01001110;
	458 :	00110111;
	457 :	00010110;
	456 :	00010000;
	455 :	00100011;
	454 :	11011010;
	453 :	00000010;
	452 :	11100010;
	451 :	00001110;
	450 :	11100111;
	449 :	11101101;
	448 :	00010000;
	447 :	10111011;
	446 :	11010011;
	445 :	11011011;
	444 :	11100101;
	443 :	11110000;
	442 :	00000110;
	441 :	00101000;
	440 :	11100110;
	439 :	00100000;
	438 :	00010100;
	437 :	11110101;
	436 :	00111011;
	435 :	11110110;
	434 :	00011011;
	433 :	11010101;
	432 :	11111100;
	431 :	11011011;
	430 :	11101111;
	429 :	11100100;
	428 :	01001001;
	427 :	00000100;
	426 :	00111101;
	425 :	00000010;
	424 :	11011011;
	423 :	11110110;
	422 :	00001001;
	421 :	11000011;
	420 :	00001001;
	419 :	10101001;
	418 :	00001111;
	417 :	01000001;
	416 :	00001111;
	415 :	11000111;
	414 :	11001011;
	413 :	11101010;
	412 :	00110110;
	411 :	11110111;
	410 :	11100010;
	409 :	00001011;
	408 :	00000000;
	407 :	11100000;
	406 :	11110011;
	405 :	11110110;
	404 :	00011010;
	403 :	01010110;
	402 :	11010101;
	401 :	01000000;
	400 :	00110010;
	399 :	11110110;
	398 :	11100000;
	397 :	00110110;
	396 :	11010101;
	395 :	00100011;
	394 :	10111100;
	393 :	01000101;
	392 :	10111101;
	391 :	00010101;
	390 :	11101110;
	389 :	00011001;
	388 :	11001000;
	387 :	00000001;
	386 :	11110000;
	385 :	11110101;
	384 :	00000010;
	383 :	11010100;
	382 :	11110101;
	381 :	11100101;
	380 :	11111001;
	379 :	10101011;
	378 :	11111011;
	377 :	00100001;
	376 :	11010110;
	375 :	00001100;
	374 :	00110011;
	373 :	00000001;
	372 :	00000011;
	371 :	11010010;
	370 :	00110011;
	369 :	11101010;
	368 :	00101101;
	367 :	00011101;
	366 :	00001010;
	365 :	00101010;
	364 :	11000000;
	363 :	00000100;
	362 :	11110101;
	361 :	00100010;
	360 :	11101101;
	359 :	00001000;
	358 :	11010101;
	357 :	11111010;
	356 :	00010010;
	355 :	00011001;
	354 :	00001111;
	353 :	00100100;
	352 :	00100000;
	351 :	00001010;
	350 :	11100010;
	349 :	01100101;
	348 :	00001000;
	347 :	11011010;
	346 :	00110011;
	345 :	00000111;
	344 :	11111100;
	343 :	11011100;
	342 :	00001110;
	341 :	01001011;
	340 :	00001010;
	339 :	00001011;
	338 :	00011011;
	337 :	11010000;
	336 :	11111010;
	335 :	00111011;
	334 :	11111111;
	333 :	11101111;
	332 :	11010001;
	331 :	00001111;
	330 :	00100000;
	329 :	00100000;
	328 :	10100010;
	327 :	00101000;
	326 :	11001011;
	325 :	11011101;
	324 :	00001001;
	323 :	00110000;
	322 :	11100010;
	321 :	11111001;
	320 :	01001001;
	319 :	00001000;
	318 :	00110011;
	317 :	11101101;
	316 :	11101110;
	315 :	00011000;
	314 :	11100110;
	313 :	00111010;
	312 :	11001011;
	311 :	00001100;
	310 :	00010101;
	309 :	00010011;
	308 :	11111011;
	307 :	11111000;
	306 :	00010110;
	305 :	00111011;
	304 :	00010101;
	303 :	11000001;
	302 :	11111001;
	301 :	00011100;
	300 :	10110100;
	299 :	00111010;
	298 :	11001111;
	297 :	00000100;
	296 :	00010001;
	295 :	00000110;
	294 :	00001100;
	293 :	00101011;
	292 :	00101010;
	291 :	00000010;
	290 :	11010111;
	289 :	11110010;
	288 :	00000100;
	287 :	10101100;
	286 :	11101000;
	285 :	11100011;
	284 :	11010100;
	283 :	00010010;
	282 :	00100001;
	281 :	11000111;
	280 :	11100000;
	279 :	11011100;
	278 :	10111011;
	277 :	00001111;
	276 :	11010000;
	275 :	11101101;
	274 :	00110000;
	273 :	00011011;
	272 :	00111011;
	271 :	00100001;
	270 :	11101000;
	269 :	00111010;
	268 :	00100110;
	267 :	11110001;
	266 :	11010000;
	265 :	11011010;
	264 :	11010111;
	263 :	11111000;
	262 :	00111110;
	261 :	11110011;
	260 :	00110011;
	259 :	00111100;
	258 :	01000001;
	257 :	01100111;
	256 :	11101101;
	255 :	11100110;
	254 :	00100101;
	253 :	00000101;
	252 :	11011011;
	251 :	11011011;
	250 :	00011110;
	249 :	11010000;
	248 :	11010000;
	247 :	11101100;
	246 :	01001110;
	245 :	00010111;
	244 :	11110011;
	243 :	00100110;
	242 :	00000011;
	241 :	11101101;
	240 :	11110111;
	239 :	11010110;
	238 :	11000011;
	237 :	11101100;
	236 :	00101001;
	235 :	11011101;
	234 :	00010001;
	233 :	11100111;
	232 :	00001011;
	231 :	01011010;
	230 :	00001100;
	229 :	11110100;
	228 :	00011100;
	227 :	11111111;
	226 :	11111111;
	225 :	11010011;
	224 :	11111001;
	223 :	01001010;
	222 :	11011110;
	221 :	00101111;
	220 :	00110000;
	219 :	00100110;
	218 :	11110110;
	217 :	11111100;
	216 :	11011101;
	215 :	00001000;
	214 :	11101101;
	213 :	00000111;
	212 :	00100110;
	211 :	11111010;
	210 :	00000100;
	209 :	00011101;
	208 :	00000011;
	207 :	11101011;
	206 :	11001101;
	205 :	11100101;
	204 :	00010111;
	203 :	11011011;
	202 :	00011001;
	201 :	11100001;
	200 :	11111100;
	199 :	11011101;
	198 :	11100100;
	197 :	11010010;
	196 :	11101110;
	195 :	11010110;
	194 :	00101100;
	193 :	00000110;
	192 :	11111001;
	191 :	00000011;
	190 :	00001001;
	189 :	11100011;
	188 :	00110101;
	187 :	00010111;
	186 :	11101111;
	185 :	11110011;
	184 :	00101011;
	183 :	00110010;
	182 :	11111101;
	181 :	11101110;
	180 :	00001011;
	179 :	11110011;
	178 :	00100101;
	177 :	00011111;
	176 :	00010110;
	175 :	11110110;
	174 :	11011011;
	173 :	11101101;
	172 :	00001111;
	171 :	00000001;
	170 :	11100001;
	169 :	00000001;
	168 :	11010011;
	167 :	11011010;
	166 :	11100100;
	165 :	11111101;
	164 :	00001001;
	163 :	11110000;
	162 :	00010111;
	161 :	00001001;
	160 :	01001101;
	159 :	00000100;
	158 :	00000100;
	157 :	00001110;
	156 :	00000101;
	155 :	11110010;
	154 :	00001110;
	153 :	11101011;
	152 :	11010001;
	151 :	11110001;
	150 :	11110111;
	149 :	11010000;
	148 :	00100000;
	147 :	00001101;
	146 :	00110010;
	145 :	11101101;
	144 :	11111111;
	143 :	11100000;
	142 :	11111011;
	141 :	11111111;
	140 :	01000100;
	139 :	00000110;
	138 :	00011101;
	137 :	00100110;
	136 :	00101101;
	135 :	11111001;
	134 :	11010100;
	133 :	11111110;
	132 :	11111110;
	131 :	00111010;
	130 :	11011000;
	129 :	11100010;
	128 :	00011101;
	127 :	00001101;
	126 :	11111011;
	125 :	11101111;
	124 :	00000101;
	123 :	11110010;
	122 :	11110111;
	121 :	00100101;
	120 :	10111111;
	119 :	11101101;
	118 :	00001101;
	117 :	11111000;
	116 :	11101010;
	115 :	11011010;
	114 :	11110100;
	113 :	00000100;
	112 :	00110011;
	111 :	00101001;
	110 :	11111011;
	109 :	11110101;
	108 :	11111111;
	107 :	11010100;
	106 :	11111010;
	105 :	00011110;
	104 :	11110011;
	103 :	11111011;
	102 :	11011010;
	101 :	00011010;
	100 :	00010010;
	99 :	00001111;
	98 :	00011011;
	97 :	00000010;
	96 :	00000110;
	95 :	00000011;
	94 :	00100000;
	93 :	10111011;
	92 :	11110110;
	91 :	10100010;
	90 :	00001010;
	89 :	00000110;
	88 :	00010000;
	87 :	11111001;
	86 :	11110111;
	85 :	00010010;
	84 :	11000101;
	83 :	11111101;
	82 :	11100101;
	81 :	00100001;
	80 :	11011010;
	79 :	00010111;
	78 :	00011000;
	77 :	00011011;
	76 :	11100011;
	75 :	11101101;
	74 :	00001100;
	73 :	00001000;
	72 :	11100101;
	71 :	11110101;
	70 :	00100001;
	69 :	00010110;
	68 :	00011110;
	67 :	00001001;
	66 :	11010101;
	65 :	00010000;
	64 :	11100110;
	63 :	00011100;
	62 :	00111101;
	61 :	00001000;
	60 :	11111000;
	59 :	11011010;
	58 :	00000110;
	57 :	00000010;
	56 :	00001101;
	55 :	00010010;
	54 :	11110100;
	53 :	00010111;
	52 :	11001101;
	51 :	01010110;
	50 :	11101011;
	49 :	00000000;
	48 :	11001001;
	47 :	00101000;
	46 :	00010011;
	45 :	00001111;
	44 :	11111001;
	43 :	00101111;
	42 :	00010001;
	41 :	00000011;
	40 :	00001101;
	39 :	00011000;
	38 :	11110111;
	37 :	11110000;
	36 :	11100011;
	35 :	11011100;
	34 :	11110001;
	33 :	11111001;
	32 :	11101110;
	31 :	00100101;
	30 :	00111000;
	29 :	11111010;
	28 :	00100000;
	27 :	00010100;
	26 :	00000011;
	25 :	00101000;
	24 :	00000000;
	23 :	00011000;
	22 :	11100111;
	21 :	00000000;
	20 :	00010101;
	19 :	11011001;
	18 :	11110011;
	17 :	11010001;
	16 :	11010101;
	15 :	00101001;
	14 :	11111011;
	13 :	11011110;
	12 :	11111000;
	11 :	10111000;
	10 :	00001101;
	9 :	11100101;
	8 :	00000011;
	7 :	01000111;
	6 :	00111000;
	5 :	11011111;
	4 :	11110111;
	3 :	00010100;
	2 :	00111000;
	1 :	00001100;
	0 :	00101001;
END;
