-- begin_signature
-- weight_rom(DEPTH
-- 100352
-- DATA_WIDTH
-- 8
-- ADDR_WIDTH
-- 17
-- INIT_FILE
-- "w1_int8.hex")
-- end_signature
WIDTH=8;
DEPTH=100352;

ADDRESS_RADIX=UNS;
DATA_RADIX=BIN;

CONTENT BEGIN
	100351 :	11111010;
	100350 :	11101011;
	100349 :	00000000;
	100348 :	11110100;
	100347 :	11111011;
	100346 :	11101111;
	100345 :	00001010;
	100344 :	00010000;
	100343 :	11111111;
	100342 :	11110100;
	100341 :	11110101;
	100340 :	00011011;
	100339 :	11011011;
	100338 :	11101011;
	100337 :	00000111;
	100336 :	00000111;
	100335 :	11101101;
	100334 :	11111010;
	100333 :	11110100;
	100332 :	00000011;
	100331 :	11100111;
	100330 :	00000001;
	100329 :	00001001;
	100328 :	11111100;
	100327 :	11101001;
	100326 :	00001000;
	100325 :	11111100;
	100324 :	00000111;
	100323 :	00001010;
	100322 :	11111011;
	100321 :	11110110;
	100320 :	00001011;
	100319 :	00011000;
	100318 :	00001100;
	100317 :	00000000;
	100316 :	00011000;
	100315 :	11111101;
	100314 :	11111100;
	100313 :	11100111;
	100312 :	00000101;
	100311 :	00000000;
	100310 :	11101010;
	100309 :	11111101;
	100308 :	00001001;
	100307 :	11011110;
	100306 :	11110000;
	100305 :	00001110;
	100304 :	11101111;
	100303 :	00000101;
	100302 :	11110100;
	100301 :	11111000;
	100300 :	11101101;
	100299 :	00001111;
	100298 :	11110000;
	100297 :	11110000;
	100296 :	11110010;
	100295 :	00001110;
	100294 :	00010001;
	100293 :	11111011;
	100292 :	11110101;
	100291 :	11111011;
	100290 :	11111110;
	100289 :	00000011;
	100288 :	11110010;
	100287 :	00000010;
	100286 :	11110000;
	100285 :	11110001;
	100284 :	11100001;
	100283 :	00001110;
	100282 :	11101001;
	100281 :	00011001;
	100280 :	11100111;
	100279 :	00001110;
	100278 :	00000001;
	100277 :	00001000;
	100276 :	11011111;
	100275 :	00000100;
	100274 :	00000110;
	100273 :	11100111;
	100272 :	11101011;
	100271 :	00000000;
	100270 :	11101110;
	100269 :	11110110;
	100268 :	00001100;
	100267 :	00001110;
	100266 :	00000101;
	100265 :	11101110;
	100264 :	00011010;
	100263 :	11100011;
	100262 :	11111110;
	100261 :	11111000;
	100260 :	00000100;
	100259 :	11101011;
	100258 :	11101101;
	100257 :	11101011;
	100256 :	00000111;
	100255 :	00010010;
	100254 :	00010000;
	100253 :	00010101;
	100252 :	11110110;
	100251 :	11111011;
	100250 :	11110101;
	100249 :	11110110;
	100248 :	11110011;
	100247 :	11011110;
	100246 :	11111010;
	100245 :	11101001;
	100244 :	11110001;
	100243 :	00000111;
	100242 :	11111011;
	100241 :	11111011;
	100240 :	00000101;
	100239 :	11111000;
	100238 :	00000110;
	100237 :	11011100;
	100236 :	11110010;
	100235 :	00001100;
	100234 :	11111000;
	100233 :	11101110;
	100232 :	00000110;
	100231 :	11101100;
	100230 :	11111001;
	100229 :	00001010;
	100228 :	11111010;
	100227 :	11111011;
	100226 :	11101111;
	100225 :	00001110;
	100224 :	00000010;
	100223 :	11111100;
	100222 :	00010010;
	100221 :	11011100;
	100220 :	11111110;
	100219 :	00000001;
	100218 :	11111101;
	100217 :	11101110;
	100216 :	00000000;
	100215 :	00001010;
	100214 :	00000001;
	100213 :	00001001;
	100212 :	00000011;
	100211 :	11100000;
	100210 :	00000101;
	100209 :	11111100;
	100208 :	11011010;
	100207 :	11111001;
	100206 :	11010100;
	100205 :	00100010;
	100204 :	11111010;
	100203 :	00011001;
	100202 :	11100000;
	100201 :	00001000;
	100200 :	00111000;
	100199 :	00001100;
	100198 :	11111110;
	100197 :	11111011;
	100196 :	00010011;
	100195 :	00000110;
	100194 :	11101010;
	100193 :	11111111;
	100192 :	11010001;
	100191 :	00001110;
	100190 :	11101000;
	100189 :	11110111;
	100188 :	00000000;
	100187 :	11011000;
	100186 :	11100101;
	100185 :	11100100;
	100184 :	11110101;
	100183 :	00000001;
	100182 :	00010011;
	100181 :	11110110;
	100180 :	11101100;
	100179 :	11110111;
	100178 :	11110110;
	100177 :	00010000;
	100176 :	00011100;
	100175 :	11111111;
	100174 :	00000011;
	100173 :	11101111;
	100172 :	00001101;
	100171 :	00000111;
	100170 :	00100011;
	100169 :	00101011;
	100168 :	00010100;
	100167 :	11111111;
	100166 :	00011110;
	100165 :	00000000;
	100164 :	11101001;
	100163 :	11001100;
	100162 :	11011000;
	100161 :	11101100;
	100160 :	00011011;
	100159 :	11110000;
	100158 :	00000000;
	100157 :	11110111;
	100156 :	11111001;
	100155 :	11111110;
	100154 :	00001011;
	100153 :	00101010;
	100152 :	11111000;
	100151 :	00000100;
	100150 :	00001001;
	100149 :	00000111;
	100148 :	00010110;
	100147 :	00001001;
	100146 :	00010010;
	100145 :	11111100;
	100144 :	00000101;
	100143 :	11111101;
	100142 :	00011001;
	100141 :	11111001;
	100140 :	00001110;
	100139 :	00100010;
	100138 :	00001110;
	100137 :	00011100;
	100136 :	11100001;
	100135 :	11101010;
	100134 :	11100010;
	100133 :	00000101;
	100132 :	11110010;
	100131 :	00001010;
	100130 :	11110010;
	100129 :	11110111;
	100128 :	00010001;
	100127 :	00011101;
	100126 :	11101110;
	100125 :	11100100;
	100124 :	11100010;
	100123 :	11111010;
	100122 :	11111111;
	100121 :	11110110;
	100120 :	00000011;
	100119 :	11110111;
	100118 :	00011001;
	100117 :	11101111;
	100116 :	11100110;
	100115 :	11010101;
	100114 :	00010001;
	100113 :	11110011;
	100112 :	00010100;
	100111 :	00001010;
	100110 :	00010001;
	100109 :	00000100;
	100108 :	00000110;
	100107 :	00000101;
	100106 :	00010011;
	100105 :	11110000;
	100104 :	11101011;
	100103 :	11111010;
	100102 :	11110101;
	100101 :	00010001;
	100100 :	11110101;
	100099 :	00001110;
	100098 :	11111110;
	100097 :	00000000;
	100096 :	11111110;
	100095 :	00011000;
	100094 :	00100100;
	100093 :	00000000;
	100092 :	00000111;
	100091 :	00000010;
	100090 :	11110110;
	100089 :	11100001;
	100088 :	11111001;
	100087 :	11111110;
	100086 :	11110101;
	100085 :	00010101;
	100084 :	00010100;
	100083 :	11101111;
	100082 :	00100011;
	100081 :	00000111;
	100080 :	00010011;
	100079 :	00010101;
	100078 :	11110010;
	100077 :	11111101;
	100076 :	00010101;
	100075 :	00001000;
	100074 :	00010111;
	100073 :	00000101;
	100072 :	00100101;
	100071 :	00010000;
	100070 :	11111100;
	100069 :	00001000;
	100068 :	11101010;
	100067 :	00001111;
	100066 :	11111100;
	100065 :	00010110;
	100064 :	11110101;
	100063 :	11110000;
	100062 :	00010011;
	100061 :	11100101;
	100060 :	11011000;
	100059 :	11010000;
	100058 :	00001001;
	100057 :	00000000;
	100056 :	11111111;
	100055 :	00000010;
	100054 :	00001111;
	100053 :	00001010;
	100052 :	11101110;
	100051 :	00100101;
	100050 :	00010100;
	100049 :	00001011;
	100048 :	00010010;
	100047 :	11111111;
	100046 :	00000011;
	100045 :	11111100;
	100044 :	00010111;
	100043 :	00010010;
	100042 :	11110010;
	100041 :	11101100;
	100040 :	11101101;
	100039 :	00001011;
	100038 :	00101010;
	100037 :	11110110;
	100036 :	11101010;
	100035 :	00011010;
	100034 :	11101000;
	100033 :	11101010;
	100032 :	11101001;
	100031 :	11110100;
	100030 :	11111110;
	100029 :	11100101;
	100028 :	11100111;
	100027 :	00000001;
	100026 :	11100100;
	100025 :	00001000;
	100024 :	11111000;
	100023 :	00001100;
	100022 :	11111001;
	100021 :	00001101;
	100020 :	00000010;
	100019 :	11111111;
	100018 :	00011100;
	100017 :	11110110;
	100016 :	11111011;
	100015 :	11110110;
	100014 :	11101000;
	100013 :	11111110;
	100012 :	00011111;
	100011 :	00011010;
	100010 :	00110011;
	100009 :	00110010;
	100008 :	00011010;
	100007 :	00010111;
	100006 :	11111011;
	100005 :	11111000;
	100004 :	00010110;
	100003 :	00001010;
	100002 :	11101011;
	100001 :	11100111;
	100000 :	11110010;
	99999 :	00000011;
	99998 :	00001101;
	99997 :	00000001;
	99996 :	00101001;
	99995 :	11110000;
	99994 :	00001001;
	99993 :	11111011;
	99992 :	00000011;
	99991 :	11110001;
	99990 :	11110111;
	99989 :	00000101;
	99988 :	00100000;
	99987 :	11011111;
	99986 :	11101100;
	99985 :	00010010;
	99984 :	11111011;
	99983 :	00101101;
	99982 :	00000110;
	99981 :	00001101;
	99980 :	00010110;
	99979 :	00101101;
	99978 :	00011110;
	99977 :	00010011;
	99976 :	00010001;
	99975 :	00001110;
	99974 :	00001010;
	99973 :	11101101;
	99972 :	11011001;
	99971 :	11110101;
	99970 :	11111101;
	99969 :	00100010;
	99968 :	11011110;
	99967 :	00000111;
	99966 :	00001100;
	99965 :	11110110;
	99964 :	00001001;
	99963 :	11111001;
	99962 :	00000101;
	99961 :	00001101;
	99960 :	00001011;
	99959 :	11100110;
	99958 :	11110100;
	99957 :	11110100;
	99956 :	00010001;
	99955 :	00000001;
	99954 :	00000111;
	99953 :	00010100;
	99952 :	00100111;
	99951 :	00000011;
	99950 :	00100100;
	99949 :	00011101;
	99948 :	00011100;
	99947 :	00010101;
	99946 :	00010111;
	99945 :	11011111;
	99944 :	11011111;
	99943 :	11110011;
	99942 :	00000101;
	99941 :	00100111;
	99940 :	00001000;
	99939 :	00001110;
	99938 :	00010111;
	99937 :	00000011;
	99936 :	11111001;
	99935 :	11110100;
	99934 :	11110011;
	99933 :	00000001;
	99932 :	00001000;
	99931 :	00000000;
	99930 :	00010010;
	99929 :	00010011;
	99928 :	00000010;
	99927 :	00010101;
	99926 :	00011010;
	99925 :	00001010;
	99924 :	00001000;
	99923 :	11110010;
	99922 :	00100001;
	99921 :	11111001;
	99920 :	00001000;
	99919 :	00001010;
	99918 :	11110011;
	99917 :	00001101;
	99916 :	00000110;
	99915 :	00101010;
	99914 :	00110101;
	99913 :	00100111;
	99912 :	00000110;
	99911 :	00010100;
	99910 :	11101101;
	99909 :	00000101;
	99908 :	00000000;
	99907 :	00010010;
	99906 :	00010111;
	99905 :	11101111;
	99904 :	11110100;
	99903 :	00000011;
	99902 :	00010100;
	99901 :	11110101;
	99900 :	11110101;
	99899 :	00001111;
	99898 :	00011101;
	99897 :	11011110;
	99896 :	00001000;
	99895 :	00010110;
	99894 :	00000111;
	99893 :	00011111;
	99892 :	00010000;
	99891 :	11111010;
	99890 :	00000011;
	99889 :	00000011;
	99888 :	00011010;
	99887 :	00100001;
	99886 :	00010000;
	99885 :	00000100;
	99884 :	00000111;
	99883 :	00000000;
	99882 :	11110100;
	99881 :	00010011;
	99880 :	11110001;
	99879 :	00001011;
	99878 :	11111100;
	99877 :	00001101;
	99876 :	11110011;
	99875 :	00001000;
	99874 :	11111101;
	99873 :	11110100;
	99872 :	00001101;
	99871 :	00001111;
	99870 :	00001110;
	99869 :	11110111;
	99868 :	00000010;
	99867 :	11111101;
	99866 :	00010111;
	99865 :	00000010;
	99864 :	00000001;
	99863 :	11110010;
	99862 :	11101100;
	99861 :	00010110;
	99860 :	11111101;
	99859 :	00011011;
	99858 :	00110110;
	99857 :	00011000;
	99856 :	00001110;
	99855 :	11111110;
	99854 :	11110010;
	99853 :	11111011;
	99852 :	11111110;
	99851 :	00010010;
	99850 :	00001100;
	99849 :	00011010;
	99848 :	11111000;
	99847 :	11101001;
	99846 :	11011111;
	99845 :	11110011;
	99844 :	11101001;
	99843 :	00011010;
	99842 :	11110011;
	99841 :	11111011;
	99840 :	00001000;
	99839 :	11100000;
	99838 :	11010000;
	99837 :	11011110;
	99836 :	11011101;
	99835 :	11011100;
	99834 :	11101011;
	99833 :	00000011;
	99832 :	00010010;
	99831 :	00011110;
	99830 :	11111001;
	99829 :	11111001;
	99828 :	00000011;
	99827 :	00000001;
	99826 :	00000001;
	99825 :	11111101;
	99824 :	11110001;
	99823 :	11111010;
	99822 :	11111110;
	99821 :	00001110;
	99820 :	00011001;
	99819 :	00000010;
	99818 :	00001110;
	99817 :	00001100;
	99816 :	11110110;
	99815 :	00000110;
	99814 :	11010011;
	99813 :	00010110;
	99812 :	11101001;
	99811 :	11100110;
	99810 :	11011011;
	99809 :	11011100;
	99808 :	11011001;
	99807 :	11000111;
	99806 :	11110000;
	99805 :	11111010;
	99804 :	00000100;
	99803 :	11100111;
	99802 :	11110001;
	99801 :	11111000;
	99800 :	11110011;
	99799 :	00000110;
	99798 :	00000001;
	99797 :	00100101;
	99796 :	11011111;
	99795 :	11111101;
	99794 :	00000001;
	99793 :	00000100;
	99792 :	00000010;
	99791 :	11111101;
	99790 :	00010000;
	99789 :	11111111;
	99788 :	00011101;
	99787 :	00010100;
	99786 :	11100001;
	99785 :	11100010;
	99784 :	11011111;
	99783 :	11011010;
	99782 :	11110100;
	99781 :	11101101;
	99780 :	11011011;
	99779 :	11011011;
	99778 :	11111000;
	99777 :	00001000;
	99776 :	00000101;
	99775 :	11101111;
	99774 :	00000110;
	99773 :	11111100;
	99772 :	11111011;
	99771 :	00000001;
	99770 :	11100100;
	99769 :	00011100;
	99768 :	00001111;
	99767 :	00001011;
	99766 :	11111100;
	99765 :	11110100;
	99764 :	11110111;
	99763 :	00001011;
	99762 :	11100011;
	99761 :	11110111;
	99760 :	11111110;
	99759 :	00000111;
	99758 :	11100110;
	99757 :	00000001;
	99756 :	11100101;
	99755 :	11111010;
	99754 :	11101011;
	99753 :	11100110;
	99752 :	11110000;
	99751 :	00000000;
	99750 :	00000010;
	99749 :	00000111;
	99748 :	11111110;
	99747 :	00010100;
	99746 :	11110110;
	99745 :	11101100;
	99744 :	00001100;
	99743 :	00000111;
	99742 :	00010001;
	99741 :	00010011;
	99740 :	00000000;
	99739 :	00000000;
	99738 :	11011111;
	99737 :	11101010;
	99736 :	00000001;
	99735 :	11111001;
	99734 :	11100101;
	99733 :	11111100;
	99732 :	00001001;
	99731 :	00010011;
	99730 :	11101111;
	99729 :	00000101;
	99728 :	00001001;
	99727 :	11110001;
	99726 :	00001101;
	99725 :	11001011;
	99724 :	00100110;
	99723 :	00000101;
	99722 :	00001010;
	99721 :	11110100;
	99720 :	11111110;
	99719 :	00000111;
	99718 :	11110001;
	99717 :	00010101;
	99716 :	11101111;
	99715 :	00011001;
	99714 :	00011010;
	99713 :	00001111;
	99712 :	11111111;
	99711 :	00010111;
	99710 :	00000101;
	99709 :	11101100;
	99708 :	11111000;
	99707 :	00000010;
	99706 :	11101011;
	99705 :	00001000;
	99704 :	11101110;
	99703 :	00000100;
	99702 :	00000000;
	99701 :	00001011;
	99700 :	00000010;
	99699 :	00011001;
	99698 :	11110100;
	99697 :	00010101;
	99696 :	00010001;
	99695 :	00010000;
	99694 :	11111110;
	99693 :	11111101;
	99692 :	11110111;
	99691 :	00010010;
	99690 :	11110111;
	99689 :	11110100;
	99688 :	00011000;
	99687 :	11111111;
	99686 :	00011000;
	99685 :	00000010;
	99684 :	00001001;
	99683 :	00000000;
	99682 :	11111000;
	99681 :	11110011;
	99680 :	11111010;
	99679 :	11110111;
	99678 :	11101101;
	99677 :	11100111;
	99676 :	00001011;
	99675 :	11110011;
	99674 :	00010001;
	99673 :	00001001;
	99672 :	11111000;
	99671 :	11101101;
	99670 :	00000001;
	99669 :	00000110;
	99668 :	00010101;
	99667 :	11110110;
	99666 :	00010010;
	99665 :	00010011;
	99664 :	11110001;
	99663 :	00001000;
	99662 :	00001001;
	99661 :	00101000;
	99660 :	00000100;
	99659 :	00000001;
	99658 :	11111001;
	99657 :	11111110;
	99656 :	00100011;
	99655 :	11100110;
	99654 :	00001100;
	99653 :	00000100;
	99652 :	11111001;
	99651 :	11111011;
	99650 :	11110110;
	99649 :	00000111;
	99648 :	00001011;
	99647 :	00001101;
	99646 :	00000010;
	99645 :	00000001;
	99644 :	00100000;
	99643 :	00010101;
	99642 :	00010011;
	99641 :	00100010;
	99640 :	00000110;
	99639 :	11111011;
	99638 :	00001111;
	99637 :	11110011;
	99636 :	00011101;
	99635 :	00011110;
	99634 :	11110000;
	99633 :	11101110;
	99632 :	11110001;
	99631 :	00000010;
	99630 :	11110110;
	99629 :	00001000;
	99628 :	00010000;
	99627 :	00000101;
	99626 :	11111000;
	99625 :	00011010;
	99624 :	00010010;
	99623 :	00001000;
	99622 :	11111101;
	99621 :	11110110;
	99620 :	11101100;
	99619 :	11110110;
	99618 :	11100010;
	99617 :	00011110;
	99616 :	11100111;
	99615 :	00001110;
	99614 :	11101010;
	99613 :	00010010;
	99612 :	11110111;
	99611 :	00001010;
	99610 :	11111101;
	99609 :	00000001;
	99608 :	00001111;
	99607 :	00000001;
	99606 :	11111111;
	99605 :	11011111;
	99604 :	00010011;
	99603 :	11110100;
	99602 :	00000101;
	99601 :	11111101;
	99600 :	00001101;
	99599 :	11110110;
	99598 :	00001101;
	99597 :	11101100;
	99596 :	11111000;
	99595 :	11101110;
	99594 :	11110100;
	99593 :	11111100;
	99592 :	11110001;
	99591 :	00001011;
	99590 :	11111110;
	99589 :	00011000;
	99588 :	11110011;
	99587 :	00000001;
	99586 :	00011000;
	99585 :	11110110;
	99584 :	00000101;
	99583 :	00000110;
	99582 :	11101000;
	99581 :	11111100;
	99580 :	00001101;
	99579 :	00011000;
	99578 :	11111101;
	99577 :	11110011;
	99576 :	11101011;
	99575 :	00001010;
	99574 :	00001001;
	99573 :	00001101;
	99572 :	00000111;
	99571 :	00000000;
	99570 :	00010110;
	99569 :	11101111;
	99568 :	00011100;
	99567 :	11110101;
	99566 :	11111100;
	99565 :	00000110;
	99564 :	00001101;
	99563 :	00000001;
	99562 :	11111010;
	99561 :	00001011;
	99560 :	00000101;
	99559 :	00000111;
	99558 :	11100101;
	99557 :	00000110;
	99556 :	00001010;
	99555 :	11111010;
	99554 :	11110110;
	99553 :	11110101;
	99552 :	11111001;
	99551 :	11111111;
	99550 :	00000010;
	99549 :	11110101;
	99548 :	00010110;
	99547 :	00000100;
	99546 :	00001111;
	99545 :	00001001;
	99544 :	11111110;
	99543 :	00000111;
	99542 :	11110110;
	99541 :	11111000;
	99540 :	00010010;
	99539 :	00001100;
	99538 :	00001111;
	99537 :	00000101;
	99536 :	00000011;
	99535 :	11111110;
	99534 :	11101110;
	99533 :	11110111;
	99532 :	00000011;
	99531 :	11101100;
	99530 :	11110111;
	99529 :	00000110;
	99528 :	11111111;
	99527 :	11111100;
	99526 :	11111100;
	99525 :	11110000;
	99524 :	11010110;
	99523 :	00000001;
	99522 :	11111111;
	99521 :	11100101;
	99520 :	11111111;
	99519 :	11111010;
	99518 :	11111110;
	99517 :	11111101;
	99516 :	00000100;
	99515 :	00011000;
	99514 :	00000110;
	99513 :	00001001;
	99512 :	11110110;
	99511 :	00010000;
	99510 :	00010100;
	99509 :	00010000;
	99508 :	00001001;
	99507 :	00011001;
	99506 :	11100111;
	99505 :	11110101;
	99504 :	00011010;
	99503 :	11110111;
	99502 :	11110111;
	99501 :	11111110;
	99500 :	11111101;
	99499 :	00000000;
	99498 :	11101100;
	99497 :	11101111;
	99496 :	11110000;
	99495 :	11111001;
	99494 :	00001110;
	99493 :	00000111;
	99492 :	00000001;
	99491 :	11101101;
	99490 :	11111100;
	99489 :	00001010;
	99488 :	00001001;
	99487 :	00001100;
	99486 :	00010111;
	99485 :	11111111;
	99484 :	11110010;
	99483 :	00010000;
	99482 :	11110101;
	99481 :	00000011;
	99480 :	11110000;
	99479 :	11111001;
	99478 :	11110000;
	99477 :	00000101;
	99476 :	11101000;
	99475 :	11110110;
	99474 :	11111010;
	99473 :	00010100;
	99472 :	00000111;
	99471 :	11110000;
	99470 :	00000110;
	99469 :	11111111;
	99468 :	00010110;
	99467 :	11010111;
	99466 :	00001011;
	99465 :	00000111;
	99464 :	00011001;
	99463 :	00010010;
	99462 :	00010101;
	99461 :	00010110;
	99460 :	00000101;
	99459 :	00010001;
	99458 :	11101001;
	99457 :	00011010;
	99456 :	00000101;
	99455 :	00010010;
	99454 :	00000000;
	99453 :	11111111;
	99452 :	00000100;
	99451 :	00001101;
	99450 :	00010010;
	99449 :	00000101;
	99448 :	00000010;
	99447 :	00101101;
	99446 :	00000110;
	99445 :	11111001;
	99444 :	00000011;
	99443 :	00011100;
	99442 :	00001011;
	99441 :	00011000;
	99440 :	00001001;
	99439 :	00011010;
	99438 :	00000001;
	99437 :	11111011;
	99436 :	00010000;
	99435 :	11110010;
	99434 :	11110111;
	99433 :	00000100;
	99432 :	11110101;
	99431 :	00011000;
	99430 :	11111111;
	99429 :	11101110;
	99428 :	11111010;
	99427 :	11110100;
	99426 :	11110010;
	99425 :	11110011;
	99424 :	00010111;
	99423 :	11111100;
	99422 :	11111111;
	99421 :	11110101;
	99420 :	11111000;
	99419 :	11111100;
	99418 :	11110111;
	99417 :	11110001;
	99416 :	11111000;
	99415 :	00001101;
	99414 :	00000101;
	99413 :	11111100;
	99412 :	00000110;
	99411 :	00001101;
	99410 :	11110011;
	99409 :	00000110;
	99408 :	00010111;
	99407 :	00101000;
	99406 :	00010110;
	99405 :	00010011;
	99404 :	00000101;
	99403 :	00000100;
	99402 :	11111101;
	99401 :	11111100;
	99400 :	11110101;
	99399 :	11110111;
	99398 :	00010100;
	99397 :	00001000;
	99396 :	00000101;
	99395 :	11110001;
	99394 :	00000010;
	99393 :	00001010;
	99392 :	00000011;
	99391 :	11100001;
	99390 :	11011010;
	99389 :	00100010;
	99388 :	11100100;
	99387 :	11110001;
	99386 :	00000111;
	99385 :	11111001;
	99384 :	11110010;
	99383 :	11110000;
	99382 :	00000101;
	99381 :	11111111;
	99380 :	00000001;
	99379 :	11110000;
	99378 :	00001010;
	99377 :	11111001;
	99376 :	00000111;
	99375 :	11111001;
	99374 :	00000111;
	99373 :	00011001;
	99372 :	11101110;
	99371 :	00001110;
	99370 :	11110011;
	99369 :	11111010;
	99368 :	11101001;
	99367 :	00001000;
	99366 :	11111011;
	99365 :	11110110;
	99364 :	11111110;
	99363 :	00010000;
	99362 :	00000001;
	99361 :	00001000;
	99360 :	00000100;
	99359 :	11100111;
	99358 :	11111100;
	99357 :	11111010;
	99356 :	11111001;
	99355 :	11101010;
	99354 :	11100000;
	99353 :	11111000;
	99352 :	00000110;
	99351 :	00000100;
	99350 :	00001011;
	99349 :	11111000;
	99348 :	00100110;
	99347 :	00001011;
	99346 :	00011001;
	99345 :	11111110;
	99344 :	00000000;
	99343 :	11110001;
	99342 :	00010010;
	99341 :	00000111;
	99340 :	11111111;
	99339 :	00001010;
	99338 :	00000101;
	99337 :	11101100;
	99336 :	00000001;
	99335 :	00001001;
	99334 :	11101010;
	99333 :	11100100;
	99332 :	00010110;
	99331 :	00000000;
	99330 :	11110111;
	99329 :	11011010;
	99328 :	11000111;
	99327 :	11110100;
	99326 :	11100001;
	99325 :	00001001;
	99324 :	11111100;
	99323 :	00011010;
	99322 :	11100011;
	99321 :	11101111;
	99320 :	00001100;
	99319 :	00000100;
	99318 :	00001110;
	99317 :	11110010;
	99316 :	11100001;
	99315 :	11111010;
	99314 :	00000010;
	99313 :	00000101;
	99312 :	00011101;
	99311 :	11110101;
	99310 :	11111011;
	99309 :	00001001;
	99308 :	11110001;
	99307 :	00000100;
	99306 :	00001110;
	99305 :	11111100;
	99304 :	11110111;
	99303 :	00000100;
	99302 :	11011110;
	99301 :	11111000;
	99300 :	00010111;
	99299 :	00000010;
	99298 :	00000001;
	99297 :	00000111;
	99296 :	11110010;
	99295 :	00000110;
	99294 :	00000100;
	99293 :	00000000;
	99292 :	11100010;
	99291 :	00000100;
	99290 :	00001001;
	99289 :	11111110;
	99288 :	00000101;
	99287 :	00001010;
	99286 :	11111110;
	99285 :	11101001;
	99284 :	00000011;
	99283 :	11111011;
	99282 :	11101001;
	99281 :	11111110;
	99280 :	00001000;
	99279 :	11111101;
	99278 :	00001110;
	99277 :	00001111;
	99276 :	11111010;
	99275 :	11111001;
	99274 :	11101110;
	99273 :	11110101;
	99272 :	00000110;
	99271 :	00010101;
	99270 :	00010000;
	99269 :	00001010;
	99268 :	11111010;
	99267 :	11100111;
	99266 :	11100111;
	99265 :	00000010;
	99264 :	00011101;
	99263 :	11111111;
	99262 :	11101110;
	99261 :	00000100;
	99260 :	00001100;
	99259 :	11110100;
	99258 :	11110110;
	99257 :	11111000;
	99256 :	11101101;
	99255 :	11110111;
	99254 :	11100100;
	99253 :	11111100;
	99252 :	11110111;
	99251 :	00010001;
	99250 :	11111000;
	99249 :	00011011;
	99248 :	00000111;
	99247 :	00011101;
	99246 :	00111001;
	99245 :	00010100;
	99244 :	11110110;
	99243 :	00010011;
	99242 :	00001001;
	99241 :	11111011;
	99240 :	11111010;
	99239 :	00001001;
	99238 :	11111110;
	99237 :	00001001;
	99236 :	00011010;
	99235 :	11111000;
	99234 :	00010000;
	99233 :	00000010;
	99232 :	00010101;
	99231 :	00000000;
	99230 :	00000111;
	99229 :	00001111;
	99228 :	11110100;
	99227 :	00001110;
	99226 :	00000101;
	99225 :	00010001;
	99224 :	00011010;
	99223 :	00010001;
	99222 :	00000100;
	99221 :	00000100;
	99220 :	11111101;
	99219 :	00010110;
	99218 :	00011100;
	99217 :	00010101;
	99216 :	00001100;
	99215 :	00101011;
	99214 :	11110101;
	99213 :	11110111;
	99212 :	00001001;
	99211 :	00000101;
	99210 :	11110110;
	99209 :	11100011;
	99208 :	00000110;
	99207 :	00000110;
	99206 :	11111100;
	99205 :	11101010;
	99204 :	11110001;
	99203 :	00011110;
	99202 :	00010010;
	99201 :	11110111;
	99200 :	11010100;
	99199 :	00001011;
	99198 :	00010000;
	99197 :	11110011;
	99196 :	11110111;
	99195 :	00000001;
	99194 :	11101000;
	99193 :	00001001;
	99192 :	00001110;
	99191 :	00000110;
	99190 :	00011100;
	99189 :	11111000;
	99188 :	00010011;
	99187 :	00010100;
	99186 :	11110011;
	99185 :	00001101;
	99184 :	11101101;
	99183 :	11101000;
	99182 :	11100111;
	99181 :	00010111;
	99180 :	00000111;
	99179 :	00011000;
	99178 :	11101100;
	99177 :	11111000;
	99176 :	11111101;
	99175 :	11110101;
	99174 :	00010101;
	99173 :	11101011;
	99172 :	00001010;
	99171 :	00010110;
	99170 :	11110110;
	99169 :	00011011;
	99168 :	11111110;
	99167 :	11110101;
	99166 :	00010111;
	99165 :	11110001;
	99164 :	00001101;
	99163 :	00100101;
	99162 :	00100000;
	99161 :	11111000;
	99160 :	11110000;
	99159 :	11111100;
	99158 :	11111101;
	99157 :	11100100;
	99156 :	00000001;
	99155 :	00010010;
	99154 :	11110000;
	99153 :	00000100;
	99152 :	11101001;
	99151 :	00000110;
	99150 :	00000001;
	99149 :	00000110;
	99148 :	11110000;
	99147 :	00001000;
	99146 :	00001001;
	99145 :	11101001;
	99144 :	00001110;
	99143 :	11000111;
	99142 :	11011001;
	99141 :	00000111;
	99140 :	11101011;
	99139 :	11110101;
	99138 :	11101111;
	99137 :	11111000;
	99136 :	00010111;
	99135 :	00101000;
	99134 :	00011111;
	99133 :	11111001;
	99132 :	11111111;
	99131 :	11101001;
	99130 :	11110010;
	99129 :	11111001;
	99128 :	11100010;
	99127 :	11101110;
	99126 :	00000101;
	99125 :	11111010;
	99124 :	11111000;
	99123 :	11111010;
	99122 :	00000001;
	99121 :	11111000;
	99120 :	00000101;
	99119 :	11111101;
	99118 :	11111000;
	99117 :	00010001;
	99116 :	00000000;
	99115 :	11110100;
	99114 :	11111101;
	99113 :	11110010;
	99112 :	00000100;
	99111 :	11110010;
	99110 :	11101010;
	99109 :	00001110;
	99108 :	00110110;
	99107 :	00100011;
	99106 :	00010011;
	99105 :	11100110;
	99104 :	11110011;
	99103 :	11101000;
	99102 :	11100110;
	99101 :	00000101;
	99100 :	11110100;
	99099 :	00000011;
	99098 :	11111110;
	99097 :	00011001;
	99096 :	00010100;
	99095 :	00100011;
	99094 :	11101010;
	99093 :	00000101;
	99092 :	00100101;
	99091 :	11110000;
	99090 :	00000001;
	99089 :	00001001;
	99088 :	11100110;
	99087 :	11010010;
	99086 :	11101001;
	99085 :	11101110;
	99084 :	11101100;
	99083 :	11110111;
	99082 :	00010010;
	99081 :	00010111;
	99080 :	01001111;
	99079 :	00011011;
	99078 :	11101110;
	99077 :	11000011;
	99076 :	11010111;
	99075 :	11111100;
	99074 :	00001010;
	99073 :	11111111;
	99072 :	00001000;
	99071 :	00100001;
	99070 :	00100010;
	99069 :	11110111;
	99068 :	11110101;
	99067 :	00001100;
	99066 :	11111010;
	99065 :	00010000;
	99064 :	00000111;
	99063 :	11101010;
	99062 :	11110001;
	99061 :	00010100;
	99060 :	00001100;
	99059 :	11101011;
	99058 :	11111010;
	99057 :	11111010;
	99056 :	00010011;
	99055 :	00000110;
	99054 :	00010000;
	99053 :	00011101;
	99052 :	00100110;
	99051 :	11111101;
	99050 :	11011011;
	99049 :	11001011;
	99048 :	11101101;
	99047 :	11110010;
	99046 :	11111011;
	99045 :	11110111;
	99044 :	11111001;
	99043 :	11011010;
	99042 :	00000100;
	99041 :	00000010;
	99040 :	11111110;
	99039 :	00011011;
	99038 :	11111111;
	99037 :	11111101;
	99036 :	11101111;
	99035 :	00010110;
	99034 :	11110000;
	99033 :	11110100;
	99032 :	11111001;
	99031 :	11100101;
	99030 :	11111000;
	99029 :	11011001;
	99028 :	00001001;
	99027 :	00001100;
	99026 :	00010111;
	99025 :	00011001;
	99024 :	00100000;
	99023 :	11011110;
	99022 :	11110001;
	99021 :	11000110;
	99020 :	11010100;
	99019 :	11101110;
	99018 :	00001101;
	99017 :	00001111;
	99016 :	00010000;
	99015 :	00000101;
	99014 :	00000100;
	99013 :	00101101;
	99012 :	11110111;
	99011 :	11111001;
	99010 :	11100100;
	99009 :	11100100;
	99008 :	00000100;
	99007 :	11101110;
	99006 :	00010011;
	99005 :	00000110;
	99004 :	11101011;
	99003 :	00001000;
	99002 :	11111101;
	99001 :	00001110;
	99000 :	11111001;
	98999 :	00011011;
	98998 :	00001110;
	98997 :	00110101;
	98996 :	00000111;
	98995 :	11110100;
	98994 :	11100001;
	98993 :	11101000;
	98992 :	11100101;
	98991 :	11101100;
	98990 :	00000010;
	98989 :	11111101;
	98988 :	00000010;
	98987 :	11101100;
	98986 :	00001001;
	98985 :	00001001;
	98984 :	00010010;
	98983 :	00000010;
	98982 :	00011010;
	98981 :	00001111;
	98980 :	11111000;
	98979 :	11110110;
	98978 :	00010010;
	98977 :	11111000;
	98976 :	11111001;
	98975 :	00000011;
	98974 :	00011000;
	98973 :	00010101;
	98972 :	00000010;
	98971 :	00001010;
	98970 :	00011010;
	98969 :	00010111;
	98968 :	00011111;
	98967 :	00001110;
	98966 :	11110001;
	98965 :	11010011;
	98964 :	11011001;
	98963 :	11110001;
	98962 :	00000011;
	98961 :	11010110;
	98960 :	00000001;
	98959 :	00000111;
	98958 :	00010001;
	98957 :	00010010;
	98956 :	00010011;
	98955 :	11101101;
	98954 :	00000010;
	98953 :	00000000;
	98952 :	00010010;
	98951 :	11111111;
	98950 :	11111101;
	98949 :	11111110;
	98948 :	00001011;
	98947 :	00010100;
	98946 :	11111000;
	98945 :	00010001;
	98944 :	00010000;
	98943 :	00000010;
	98942 :	00001011;
	98941 :	00101101;
	98940 :	00100110;
	98939 :	00010111;
	98938 :	11100100;
	98937 :	11011100;
	98936 :	11110011;
	98935 :	11101000;
	98934 :	11110100;
	98933 :	11110000;
	98932 :	00010111;
	98931 :	11111100;
	98930 :	11111100;
	98929 :	00000100;
	98928 :	00010001;
	98927 :	00000001;
	98926 :	00000101;
	98925 :	00001001;
	98924 :	11110100;
	98923 :	00010000;
	98922 :	11111010;
	98921 :	11100001;
	98920 :	11111100;
	98919 :	11110011;
	98918 :	11111000;
	98917 :	00001011;
	98916 :	11111001;
	98915 :	00010010;
	98914 :	00011110;
	98913 :	00000000;
	98912 :	00011001;
	98911 :	11111110;
	98910 :	00000110;
	98909 :	11101111;
	98908 :	00001011;
	98907 :	11101101;
	98906 :	11101010;
	98905 :	00010101;
	98904 :	00000101;
	98903 :	11101110;
	98902 :	00000111;
	98901 :	00000110;
	98900 :	11111011;
	98899 :	00011101;
	98898 :	00001111;
	98897 :	11111001;
	98896 :	00010111;
	98895 :	00000110;
	98894 :	00010000;
	98893 :	11101010;
	98892 :	11110111;
	98891 :	11110101;
	98890 :	11111010;
	98889 :	00000011;
	98888 :	11110101;
	98887 :	11110101;
	98886 :	00000110;
	98885 :	11111110;
	98884 :	11011100;
	98883 :	11111100;
	98882 :	00000001;
	98881 :	00010010;
	98880 :	11100000;
	98879 :	11101000;
	98878 :	11110101;
	98877 :	11100101;
	98876 :	00000011;
	98875 :	11111100;
	98874 :	00001110;
	98873 :	00010001;
	98872 :	11111010;
	98871 :	00010010;
	98870 :	11110000;
	98869 :	11111111;
	98868 :	11111010;
	98867 :	11110110;
	98866 :	11101101;
	98865 :	00001100;
	98864 :	11110000;
	98863 :	00000100;
	98862 :	11111001;
	98861 :	11111001;
	98860 :	11110010;
	98859 :	11101000;
	98858 :	11111101;
	98857 :	11110011;
	98856 :	00010010;
	98855 :	00000111;
	98854 :	00000001;
	98853 :	00010101;
	98852 :	00000001;
	98851 :	00000100;
	98850 :	00001110;
	98849 :	00000010;
	98848 :	00010100;
	98847 :	00001000;
	98846 :	11110110;
	98845 :	11110001;
	98844 :	00000010;
	98843 :	00001000;
	98842 :	00001011;
	98841 :	00000011;
	98840 :	11111000;
	98839 :	11100000;
	98838 :	00000110;
	98837 :	11101111;
	98836 :	11111000;
	98835 :	00011000;
	98834 :	00000111;
	98833 :	11111111;
	98832 :	00000110;
	98831 :	11110100;
	98830 :	00000111;
	98829 :	11110101;
	98828 :	00011001;
	98827 :	00001000;
	98826 :	00000001;
	98825 :	11101000;
	98824 :	11110011;
	98823 :	11111001;
	98822 :	00000100;
	98821 :	11101110;
	98820 :	11110101;
	98819 :	00001011;
	98818 :	11111110;
	98817 :	00001010;
	98816 :	00000100;
	98815 :	00000001;
	98814 :	11111011;
	98813 :	00000000;
	98812 :	11101100;
	98811 :	11111010;
	98810 :	00001101;
	98809 :	00000010;
	98808 :	00011010;
	98807 :	00001110;
	98806 :	11110101;
	98805 :	00001001;
	98804 :	00001000;
	98803 :	11101100;
	98802 :	11111111;
	98801 :	00001000;
	98800 :	00001000;
	98799 :	00000111;
	98798 :	11111001;
	98797 :	11101001;
	98796 :	11111111;
	98795 :	00011001;
	98794 :	00001101;
	98793 :	11110000;
	98792 :	11111111;
	98791 :	00000001;
	98790 :	11110011;
	98789 :	11010111;
	98788 :	00000010;
	98787 :	00100000;
	98786 :	00010001;
	98785 :	00001010;
	98784 :	11111100;
	98783 :	00010101;
	98782 :	11111101;
	98781 :	11111100;
	98780 :	11111110;
	98779 :	00001000;
	98778 :	11101110;
	98777 :	00000100;
	98776 :	00011110;
	98775 :	00010100;
	98774 :	11100101;
	98773 :	00010000;
	98772 :	11111000;
	98771 :	00000001;
	98770 :	11111011;
	98769 :	11110101;
	98768 :	00000000;
	98767 :	00000010;
	98766 :	00000001;
	98765 :	00010011;
	98764 :	11110001;
	98763 :	11111111;
	98762 :	11111011;
	98761 :	00010101;
	98760 :	11111011;
	98759 :	11110110;
	98758 :	11110100;
	98757 :	00000101;
	98756 :	00000011;
	98755 :	11111011;
	98754 :	11110011;
	98753 :	11111010;
	98752 :	11111111;
	98751 :	00001010;
	98750 :	11111101;
	98749 :	11110001;
	98748 :	00000110;
	98747 :	11111111;
	98746 :	11111010;
	98745 :	11100010;
	98744 :	00000010;
	98743 :	11100110;
	98742 :	11111100;
	98741 :	11101001;
	98740 :	00100100;
	98739 :	11101100;
	98738 :	11111111;
	98737 :	11100100;
	98736 :	11111100;
	98735 :	11110001;
	98734 :	11110110;
	98733 :	11110110;
	98732 :	00000101;
	98731 :	00011001;
	98730 :	11101100;
	98729 :	00010111;
	98728 :	00010101;
	98727 :	11111100;
	98726 :	11111111;
	98725 :	11111000;
	98724 :	11111110;
	98723 :	00010111;
	98722 :	00001001;
	98721 :	11111100;
	98720 :	11111111;
	98719 :	11101000;
	98718 :	11111010;
	98717 :	11111010;
	98716 :	11111000;
	98715 :	11110101;
	98714 :	00000000;
	98713 :	00010001;
	98712 :	11111101;
	98711 :	11111011;
	98710 :	00010100;
	98709 :	11110010;
	98708 :	11111100;
	98707 :	00000111;
	98706 :	11111010;
	98705 :	11111100;
	98704 :	11111000;
	98703 :	11101100;
	98702 :	00000001;
	98701 :	00010011;
	98700 :	11100100;
	98699 :	11101010;
	98698 :	11111000;
	98697 :	11101010;
	98696 :	00010011;
	98695 :	11111111;
	98694 :	11111110;
	98693 :	00011111;
	98692 :	11110010;
	98691 :	00000011;
	98690 :	00001101;
	98689 :	00000010;
	98688 :	00010011;
	98687 :	00010001;
	98686 :	11111110;
	98685 :	00001001;
	98684 :	11110001;
	98683 :	11111101;
	98682 :	11110100;
	98681 :	11101110;
	98680 :	11111110;
	98679 :	11011100;
	98678 :	11101100;
	98677 :	00010011;
	98676 :	11100011;
	98675 :	11111101;
	98674 :	11111100;
	98673 :	00000001;
	98672 :	11011101;
	98671 :	11111101;
	98670 :	00000001;
	98669 :	11101111;
	98668 :	11111110;
	98667 :	00001110;
	98666 :	00011001;
	98665 :	11111101;
	98664 :	00000100;
	98663 :	00000000;
	98662 :	00011000;
	98661 :	00010010;
	98660 :	00001000;
	98659 :	00011100;
	98658 :	11111111;
	98657 :	11111100;
	98656 :	00010101;
	98655 :	00010011;
	98654 :	11110110;
	98653 :	11100101;
	98652 :	11111110;
	98651 :	00001100;
	98650 :	11011111;
	98649 :	11101100;
	98648 :	00001111;
	98647 :	11111101;
	98646 :	11111100;
	98645 :	11111101;
	98644 :	00010101;
	98643 :	11011110;
	98642 :	11101111;
	98641 :	00001000;
	98640 :	11110111;
	98639 :	11100001;
	98638 :	11000100;
	98637 :	11110110;
	98636 :	00000110;
	98635 :	00011101;
	98634 :	11111000;
	98633 :	00010100;
	98632 :	00010001;
	98631 :	00001010;
	98630 :	00001000;
	98629 :	00011001;
	98628 :	00001000;
	98627 :	00011100;
	98626 :	00101010;
	98625 :	11110010;
	98624 :	11100111;
	98623 :	11110111;
	98622 :	00001010;
	98621 :	11111111;
	98620 :	11111101;
	98619 :	11110110;
	98618 :	00001010;
	98617 :	11111010;
	98616 :	00001000;
	98615 :	11111001;
	98614 :	11111001;
	98613 :	00000010;
	98612 :	11110100;
	98611 :	11111001;
	98610 :	11110110;
	98609 :	11110100;
	98608 :	11111000;
	98607 :	11111000;
	98606 :	00001101;
	98605 :	00010101;
	98604 :	11110001;
	98603 :	11110110;
	98602 :	11111111;
	98601 :	00000111;
	98600 :	00011000;
	98599 :	11111110;
	98598 :	00000100;
	98597 :	00001010;
	98596 :	11111000;
	98595 :	11110010;
	98594 :	11111100;
	98593 :	11111100;
	98592 :	00000101;
	98591 :	11110101;
	98590 :	00000001;
	98589 :	00010100;
	98588 :	11110110;
	98587 :	00001000;
	98586 :	00000111;
	98585 :	11101110;
	98584 :	11111011;
	98583 :	00001101;
	98582 :	00010011;
	98581 :	11110110;
	98580 :	00001001;
	98579 :	00000010;
	98578 :	00010110;
	98577 :	11101001;
	98576 :	00001010;
	98575 :	11100011;
	98574 :	00010001;
	98573 :	00001000;
	98572 :	11110011;
	98571 :	11100010;
	98570 :	11101101;
	98569 :	00000000;
	98568 :	11110000;
	98567 :	11010101;
	98566 :	11100001;
	98565 :	11110101;
	98564 :	11110011;
	98563 :	11100101;
	98562 :	11111101;
	98561 :	11101100;
	98560 :	00010101;
	98559 :	00000100;
	98558 :	11111001;
	98557 :	11111111;
	98556 :	00000001;
	98555 :	11111100;
	98554 :	00010110;
	98553 :	11110101;
	98552 :	11110101;
	98551 :	11100010;
	98550 :	00011010;
	98549 :	00010000;
	98548 :	11110000;
	98547 :	11110010;
	98546 :	11011100;
	98545 :	11111101;
	98544 :	00001111;
	98543 :	00001111;
	98542 :	11110000;
	98541 :	11101001;
	98540 :	11111111;
	98539 :	11110111;
	98538 :	11111011;
	98537 :	11110010;
	98536 :	11011101;
	98535 :	00001110;
	98534 :	00000101;
	98533 :	00011111;
	98532 :	00001001;
	98531 :	00010100;
	98530 :	11111000;
	98529 :	11110101;
	98528 :	00001101;
	98527 :	11111110;
	98526 :	11110110;
	98525 :	11110001;
	98524 :	11110011;
	98523 :	11111011;
	98522 :	11100111;
	98521 :	11101111;
	98520 :	00011010;
	98519 :	00010101;
	98518 :	00010001;
	98517 :	00011000;
	98516 :	00000100;
	98515 :	00001100;
	98514 :	00000110;
	98513 :	00001001;
	98512 :	00001011;
	98511 :	11011111;
	98510 :	11100101;
	98509 :	11110100;
	98508 :	11011101;
	98507 :	11011101;
	98506 :	00011110;
	98505 :	00001000;
	98504 :	11111101;
	98503 :	11111110;
	98502 :	11111100;
	98501 :	11111011;
	98500 :	11101100;
	98499 :	11111100;
	98498 :	11111000;
	98497 :	11101100;
	98496 :	11100010;
	98495 :	11100111;
	98494 :	11101001;
	98493 :	00011010;
	98492 :	00011100;
	98491 :	00001101;
	98490 :	00001001;
	98489 :	00010000;
	98488 :	00100011;
	98487 :	11100000;
	98486 :	11111111;
	98485 :	11110001;
	98484 :	11110001;
	98483 :	11111100;
	98482 :	00000101;
	98481 :	11110010;
	98480 :	11100000;
	98479 :	11011100;
	98478 :	11011111;
	98477 :	00000010;
	98476 :	00001000;
	98475 :	00001010;
	98474 :	00000011;
	98473 :	11100011;
	98472 :	11101000;
	98471 :	11110000;
	98470 :	11110111;
	98469 :	11110011;
	98468 :	11110000;
	98467 :	11011011;
	98466 :	11011100;
	98465 :	00010001;
	98464 :	00001000;
	98463 :	00011011;
	98462 :	11100101;
	98461 :	00001001;
	98460 :	00000101;
	98459 :	00000011;
	98458 :	11100110;
	98457 :	11011010;
	98456 :	00010101;
	98455 :	00000111;
	98454 :	11111100;
	98453 :	00000000;
	98452 :	11110100;
	98451 :	11111011;
	98450 :	00011011;
	98449 :	00001011;
	98448 :	11110100;
	98447 :	11111100;
	98446 :	11010111;
	98445 :	00001011;
	98444 :	00000010;
	98443 :	11011010;
	98442 :	11111100;
	98441 :	00001111;
	98440 :	11011010;
	98439 :	11111001;
	98438 :	00000001;
	98437 :	11110000;
	98436 :	00000111;
	98435 :	11110110;
	98434 :	11111111;
	98433 :	00000110;
	98432 :	00100101;
	98431 :	00010100;
	98430 :	00011001;
	98429 :	11111110;
	98428 :	11111111;
	98427 :	11111101;
	98426 :	00000101;
	98425 :	11111100;
	98424 :	11100111;
	98423 :	11111011;
	98422 :	11111101;
	98421 :	11101111;
	98420 :	11101110;
	98419 :	11111001;
	98418 :	00001000;
	98417 :	11111111;
	98416 :	11111011;
	98415 :	11101000;
	98414 :	11111111;
	98413 :	11111110;
	98412 :	11110101;
	98411 :	00000101;
	98410 :	11110100;
	98409 :	00010110;
	98408 :	00011000;
	98407 :	00001000;
	98406 :	11101101;
	98405 :	00001100;
	98404 :	00000001;
	98403 :	00001001;
	98402 :	00000110;
	98401 :	00010101;
	98400 :	00000000;
	98399 :	00011101;
	98398 :	00010010;
	98397 :	00011101;
	98396 :	11101011;
	98395 :	11110111;
	98394 :	11101100;
	98393 :	00000110;
	98392 :	11110110;
	98391 :	00001101;
	98390 :	00001000;
	98389 :	00000011;
	98388 :	11110001;
	98387 :	11111010;
	98386 :	00010011;
	98385 :	00001100;
	98384 :	00001101;
	98383 :	11110100;
	98382 :	11110001;
	98381 :	00011111;
	98380 :	00010010;
	98379 :	00001000;
	98378 :	11100011;
	98377 :	00100100;
	98376 :	00110110;
	98375 :	01000011;
	98374 :	00101111;
	98373 :	00001001;
	98372 :	00010111;
	98371 :	11110111;
	98370 :	00000110;
	98369 :	11111011;
	98368 :	11100000;
	98367 :	00010000;
	98366 :	11110001;
	98365 :	11111101;
	98364 :	00000110;
	98363 :	11111000;
	98362 :	00001111;
	98361 :	11110100;
	98360 :	00010101;
	98359 :	11111010;
	98358 :	00000010;
	98357 :	00101010;
	98356 :	00010011;
	98355 :	00001101;
	98354 :	00000001;
	98353 :	11101100;
	98352 :	00010101;
	98351 :	11100011;
	98350 :	11100010;
	98349 :	11110011;
	98348 :	00001100;
	98347 :	00111101;
	98346 :	00011010;
	98345 :	00100111;
	98344 :	00011001;
	98343 :	11111011;
	98342 :	11110010;
	98341 :	00000111;
	98340 :	11110001;
	98339 :	11110110;
	98338 :	00001101;
	98337 :	11110010;
	98336 :	11110010;
	98335 :	00001110;
	98334 :	11110000;
	98333 :	00001111;
	98332 :	11110011;
	98331 :	00000101;
	98330 :	00000111;
	98329 :	11110111;
	98328 :	00000010;
	98327 :	11111101;
	98326 :	11100110;
	98325 :	11111001;
	98324 :	00001011;
	98323 :	11011101;
	98322 :	11011000;
	98321 :	11011110;
	98320 :	11101010;
	98319 :	00011001;
	98318 :	00111111;
	98317 :	01010101;
	98316 :	11111001;
	98315 :	00001001;
	98314 :	11111011;
	98313 :	11110100;
	98312 :	00001000;
	98311 :	11110100;
	98310 :	11111001;
	98309 :	11110100;
	98308 :	00011110;
	98307 :	11100111;
	98306 :	00000111;
	98305 :	00000001;
	98304 :	00011001;
	98303 :	11110001;
	98302 :	00010111;
	98301 :	00001101;
	98300 :	00001010;
	98299 :	00000101;
	98298 :	11111101;
	98297 :	00000001;
	98296 :	11011011;
	98295 :	00000010;
	98294 :	11000111;
	98293 :	11010001;
	98292 :	11100111;
	98291 :	11110111;
	98290 :	00010000;
	98289 :	00110011;
	98288 :	00101110;
	98287 :	00011101;
	98286 :	00000100;
	98285 :	00000001;
	98284 :	00011101;
	98283 :	00001000;
	98282 :	00000010;
	98281 :	11111001;
	98280 :	11100111;
	98279 :	00011000;
	98278 :	00010101;
	98277 :	00001000;
	98276 :	00010110;
	98275 :	00010001;
	98274 :	00011011;
	98273 :	00011111;
	98272 :	11111011;
	98271 :	11110001;
	98270 :	00000000;
	98269 :	11101100;
	98268 :	00100011;
	98267 :	11001000;
	98266 :	11001100;
	98265 :	11001010;
	98264 :	11010000;
	98263 :	00001010;
	98262 :	00001111;
	98261 :	00100101;
	98260 :	00011001;
	98259 :	00001110;
	98258 :	00010001;
	98257 :	11110110;
	98256 :	00001001;
	98255 :	11100100;
	98254 :	11111000;
	98253 :	11111000;
	98252 :	00011101;
	98251 :	11111011;
	98250 :	00010000;
	98249 :	00101110;
	98248 :	00010110;
	98247 :	00011001;
	98246 :	11110101;
	98245 :	00001110;
	98244 :	00000010;
	98243 :	11110001;
	98242 :	00000000;
	98241 :	11011001;
	98240 :	11100010;
	98239 :	11001111;
	98238 :	11101011;
	98237 :	11100110;
	98236 :	11101011;
	98235 :	00010010;
	98234 :	00001011;
	98233 :	00100001;
	98232 :	11111010;
	98231 :	00100111;
	98230 :	00001100;
	98229 :	00000110;
	98228 :	11100100;
	98227 :	11111111;
	98226 :	11111110;
	98225 :	00011001;
	98224 :	11111101;
	98223 :	00101011;
	98222 :	00010001;
	98221 :	11111000;
	98220 :	00000111;
	98219 :	00001111;
	98218 :	00011111;
	98217 :	11111100;
	98216 :	11110110;
	98215 :	11010111;
	98214 :	11111011;
	98213 :	00000010;
	98212 :	00001101;
	98211 :	11101011;
	98210 :	11101101;
	98209 :	11100100;
	98208 :	11111010;
	98207 :	00001001;
	98206 :	00000011;
	98205 :	00110100;
	98204 :	00010100;
	98203 :	00000001;
	98202 :	11110101;
	98201 :	11110111;
	98200 :	00001101;
	98199 :	11110010;
	98198 :	00001001;
	98197 :	00011110;
	98196 :	11011110;
	98195 :	00001100;
	98194 :	00011000;
	98193 :	00010001;
	98192 :	00001111;
	98191 :	00001000;
	98190 :	00000010;
	98189 :	11111010;
	98188 :	11100001;
	98187 :	11110101;
	98186 :	11110101;
	98185 :	11010001;
	98184 :	11010111;
	98183 :	11111111;
	98182 :	11101110;
	98181 :	00000110;
	98180 :	00000011;
	98179 :	11111111;
	98178 :	11111001;
	98177 :	00000110;
	98176 :	00011110;
	98175 :	11111100;
	98174 :	00000000;
	98173 :	11111111;
	98172 :	00001011;
	98171 :	11111100;
	98170 :	11110000;
	98169 :	00000000;
	98168 :	00000000;
	98167 :	00011110;
	98166 :	11111111;
	98165 :	00001010;
	98164 :	11110101;
	98163 :	00000000;
	98162 :	00011110;
	98161 :	00001100;
	98160 :	00110010;
	98159 :	00000100;
	98158 :	00000011;
	98157 :	11011110;
	98156 :	11111100;
	98155 :	11011001;
	98154 :	11111100;
	98153 :	11101011;
	98152 :	00010011;
	98151 :	00110011;
	98150 :	00100111;
	98149 :	00011010;
	98148 :	00001011;
	98147 :	00101001;
	98146 :	00000001;
	98145 :	11110111;
	98144 :	00010010;
	98143 :	11111111;
	98142 :	00010010;
	98141 :	00100000;
	98140 :	11101101;
	98139 :	11111011;
	98138 :	11110111;
	98137 :	00011010;
	98136 :	11111100;
	98135 :	00011011;
	98134 :	11111101;
	98133 :	00010011;
	98132 :	00011000;
	98131 :	11111101;
	98130 :	11110010;
	98129 :	11110010;
	98128 :	00001110;
	98127 :	11101010;
	98126 :	00000101;
	98125 :	00000011;
	98124 :	00010000;
	98123 :	11111000;
	98122 :	11111111;
	98121 :	11111001;
	98120 :	11100000;
	98119 :	00001011;
	98118 :	00010011;
	98117 :	00000101;
	98116 :	11100100;
	98115 :	00000100;
	98114 :	00000101;
	98113 :	11110111;
	98112 :	11111000;
	98111 :	00001101;
	98110 :	11110000;
	98109 :	00010111;
	98108 :	11111110;
	98107 :	00010111;
	98106 :	00001110;
	98105 :	00011100;
	98104 :	11111000;
	98103 :	11111110;
	98102 :	00010000;
	98101 :	11100011;
	98100 :	11110011;
	98099 :	11101000;
	98098 :	11101100;
	98097 :	00011001;
	98096 :	11100111;
	98095 :	11111001;
	98094 :	11101010;
	98093 :	11110101;
	98092 :	00000011;
	98091 :	00010111;
	98090 :	00011000;
	98089 :	00001110;
	98088 :	00000100;
	98087 :	11110001;
	98086 :	11100111;
	98085 :	11111010;
	98084 :	00010010;
	98083 :	00000001;
	98082 :	00001001;
	98081 :	11110111;
	98080 :	00000101;
	98079 :	00000001;
	98078 :	11111100;
	98077 :	11101111;
	98076 :	00011011;
	98075 :	00011001;
	98074 :	00010110;
	98073 :	00000000;
	98072 :	11111111;
	98071 :	11110111;
	98070 :	11111010;
	98069 :	00000000;
	98068 :	11110010;
	98067 :	00001000;
	98066 :	00000010;
	98065 :	11110011;
	98064 :	00010100;
	98063 :	00000111;
	98062 :	11111010;
	98061 :	00100010;
	98060 :	00000010;
	98059 :	00001001;
	98058 :	11101101;
	98057 :	11111101;
	98056 :	00010000;
	98055 :	11110110;
	98054 :	00001010;
	98053 :	00010001;
	98052 :	11111111;
	98051 :	00000100;
	98050 :	00000111;
	98049 :	11110111;
	98048 :	00001100;
	98047 :	11101000;
	98046 :	00001111;
	98045 :	00010110;
	98044 :	00001010;
	98043 :	11111010;
	98042 :	00001101;
	98041 :	11100110;
	98040 :	11110001;
	98039 :	00001111;
	98038 :	00000001;
	98037 :	11010111;
	98036 :	00000000;
	98035 :	11111111;
	98034 :	11100100;
	98033 :	00000110;
	98032 :	00001110;
	98031 :	00001111;
	98030 :	11110110;
	98029 :	11111000;
	98028 :	11110011;
	98027 :	11101101;
	98026 :	00000001;
	98025 :	11111111;
	98024 :	00010001;
	98023 :	00001000;
	98022 :	00000110;
	98021 :	11101011;
	98020 :	00000010;
	98019 :	11111010;
	98018 :	00000110;
	98017 :	00000011;
	98016 :	00011111;
	98015 :	11110110;
	98014 :	00000100;
	98013 :	00010010;
	98012 :	00000010;
	98011 :	11111110;
	98010 :	00001110;
	98009 :	11111010;
	98008 :	11111000;
	98007 :	11110101;
	98006 :	11111111;
	98005 :	00010100;
	98004 :	11100010;
	98003 :	11111111;
	98002 :	00010110;
	98001 :	00100111;
	98000 :	11110011;
	97999 :	11110100;
	97998 :	11110110;
	97997 :	00000000;
	97996 :	00001001;
	97995 :	11111111;
	97994 :	00001110;
	97993 :	00001001;
	97992 :	00100000;
	97991 :	00000110;
	97990 :	00000100;
	97989 :	00010110;
	97988 :	11111001;
	97987 :	00001001;
	97986 :	00001100;
	97985 :	11110011;
	97984 :	00000101;
	97983 :	00000010;
	97982 :	11111100;
	97981 :	00000101;
	97980 :	00001000;
	97979 :	11011101;
	97978 :	00011111;
	97977 :	00001001;
	97976 :	11111100;
	97975 :	00010001;
	97974 :	00001111;
	97973 :	11111010;
	97972 :	00001110;
	97971 :	00000110;
	97970 :	11110011;
	97969 :	11110000;
	97968 :	00001101;
	97967 :	00011010;
	97966 :	00011101;
	97965 :	00001110;
	97964 :	00000000;
	97963 :	11110000;
	97962 :	00010100;
	97961 :	11111000;
	97960 :	00010010;
	97959 :	00100000;
	97958 :	00100000;
	97957 :	00000000;
	97956 :	00011100;
	97955 :	00100000;
	97954 :	00011000;
	97953 :	11100101;
	97952 :	11110001;
	97951 :	00000110;
	97950 :	00011000;
	97949 :	11111101;
	97948 :	00010000;
	97947 :	11100101;
	97946 :	11111100;
	97945 :	00001010;
	97944 :	00000110;
	97943 :	00000110;
	97942 :	11110110;
	97941 :	11110000;
	97940 :	00000011;
	97939 :	11100110;
	97938 :	00100111;
	97937 :	11101001;
	97936 :	11110101;
	97935 :	00001010;
	97934 :	11101011;
	97933 :	00010111;
	97932 :	00000000;
	97931 :	00000101;
	97930 :	00011001;
	97929 :	00001011;
	97928 :	11111111;
	97927 :	00011100;
	97926 :	00100011;
	97925 :	00011000;
	97924 :	11111000;
	97923 :	00001010;
	97922 :	00010000;
	97921 :	00010110;
	97920 :	11110000;
	97919 :	11111010;
	97918 :	11111010;
	97917 :	11100011;
	97916 :	00000110;
	97915 :	00100010;
	97914 :	11111010;
	97913 :	00010010;
	97912 :	11111101;
	97911 :	11111010;
	97910 :	11110110;
	97909 :	00001111;
	97908 :	00010111;
	97907 :	11111001;
	97906 :	11110110;
	97905 :	11111000;
	97904 :	11110000;
	97903 :	00010010;
	97902 :	11110001;
	97901 :	11110110;
	97900 :	11101011;
	97899 :	11111101;
	97898 :	00000100;
	97897 :	11110111;
	97896 :	00001000;
	97895 :	00001110;
	97894 :	11111000;
	97893 :	00000110;
	97892 :	00001001;
	97891 :	00000010;
	97890 :	11101110;
	97889 :	00000101;
	97888 :	11110110;
	97887 :	11111000;
	97886 :	00001101;
	97885 :	00000010;
	97884 :	00000001;
	97883 :	11110000;
	97882 :	00010101;
	97881 :	11110001;
	97880 :	11111110;
	97879 :	00010010;
	97878 :	11101101;
	97877 :	00001101;
	97876 :	11101100;
	97875 :	11010111;
	97874 :	11111110;
	97873 :	00000110;
	97872 :	11110001;
	97871 :	11111010;
	97870 :	00000010;
	97869 :	00011010;
	97868 :	00010100;
	97867 :	00001110;
	97866 :	11101001;
	97865 :	00001011;
	97864 :	11110010;
	97863 :	11111011;
	97862 :	00001010;
	97861 :	00000000;
	97860 :	11111001;
	97859 :	00001001;
	97858 :	11111101;
	97857 :	11110111;
	97856 :	00001011;
	97855 :	11111000;
	97854 :	11110110;
	97853 :	11110010;
	97852 :	00001000;
	97851 :	11111100;
	97850 :	11101110;
	97849 :	00001101;
	97848 :	11110100;
	97847 :	11111001;
	97846 :	00000111;
	97845 :	00001010;
	97844 :	11110110;
	97843 :	00001001;
	97842 :	11110101;
	97841 :	11110001;
	97840 :	11111001;
	97839 :	00000111;
	97838 :	00001101;
	97837 :	11111011;
	97836 :	00000100;
	97835 :	00000011;
	97834 :	00010011;
	97833 :	00000100;
	97832 :	11101000;
	97831 :	00000101;
	97830 :	00010000;
	97829 :	11111000;
	97828 :	11111100;
	97827 :	11101000;
	97826 :	11110001;
	97825 :	11110100;
	97824 :	11111101;
	97823 :	00000100;
	97822 :	11111100;
	97821 :	11111010;
	97820 :	11011110;
	97819 :	11100110;
	97818 :	11111001;
	97817 :	11111010;
	97816 :	11110100;
	97815 :	00010001;
	97814 :	00001110;
	97813 :	11111111;
	97812 :	00000100;
	97811 :	11111011;
	97810 :	11110101;
	97809 :	00001011;
	97808 :	00010111;
	97807 :	11110111;
	97806 :	11110011;
	97805 :	11110100;
	97804 :	00000101;
	97803 :	00000001;
	97802 :	11111001;
	97801 :	00000000;
	97800 :	11111100;
	97799 :	11110000;
	97798 :	11111010;
	97797 :	00011011;
	97796 :	11111000;
	97795 :	11111011;
	97794 :	11100001;
	97793 :	11101100;
	97792 :	00000011;
	97791 :	00000010;
	97790 :	00100001;
	97789 :	00001110;
	97788 :	00000000;
	97787 :	11100101;
	97786 :	00010101;
	97785 :	00000101;
	97784 :	11111000;
	97783 :	11011110;
	97782 :	00010011;
	97781 :	00001111;
	97780 :	00000100;
	97779 :	11111111;
	97778 :	00001111;
	97777 :	11111010;
	97776 :	11110010;
	97775 :	00001000;
	97774 :	11111101;
	97773 :	00000001;
	97772 :	11111111;
	97771 :	11100011;
	97770 :	11100101;
	97769 :	00001100;
	97768 :	11101100;
	97767 :	11100110;
	97766 :	00000110;
	97765 :	11110101;
	97764 :	00001000;
	97763 :	00001010;
	97762 :	00000011;
	97761 :	00000101;
	97760 :	00001001;
	97759 :	11011011;
	97758 :	00011100;
	97757 :	11111000;
	97756 :	00010011;
	97755 :	11111010;
	97754 :	11111101;
	97753 :	11110111;
	97752 :	11111101;
	97751 :	00000101;
	97750 :	00000000;
	97749 :	11100100;
	97748 :	11110001;
	97747 :	11110001;
	97746 :	11110001;
	97745 :	00000001;
	97744 :	00000100;
	97743 :	11111101;
	97742 :	11100110;
	97741 :	00000110;
	97740 :	00001010;
	97739 :	11111101;
	97738 :	11101011;
	97737 :	11110011;
	97736 :	11110011;
	97735 :	00010000;
	97734 :	00010010;
	97733 :	11101000;
	97732 :	11110011;
	97731 :	11110101;
	97730 :	00001010;
	97729 :	11101111;
	97728 :	11110011;
	97727 :	00010001;
	97726 :	11100010;
	97725 :	00101001;
	97724 :	11111011;
	97723 :	00000111;
	97722 :	00000100;
	97721 :	00001101;
	97720 :	11110001;
	97719 :	11101001;
	97718 :	11111001;
	97717 :	11011101;
	97716 :	11110111;
	97715 :	11101111;
	97714 :	00000000;
	97713 :	11110010;
	97712 :	11010111;
	97711 :	11100111;
	97710 :	11101010;
	97709 :	00000001;
	97708 :	00011011;
	97707 :	00100000;
	97706 :	11111101;
	97705 :	11111010;
	97704 :	11101001;
	97703 :	11010011;
	97702 :	11111110;
	97701 :	00000100;
	97700 :	00000001;
	97699 :	00001001;
	97698 :	00000011;
	97697 :	00000000;
	97696 :	11101111;
	97695 :	00000101;
	97694 :	11110000;
	97693 :	11001001;
	97692 :	00000000;
	97691 :	11111010;
	97690 :	11110110;
	97689 :	00010101;
	97688 :	11110010;
	97687 :	00001011;
	97686 :	00001001;
	97685 :	00000100;
	97684 :	11010100;
	97683 :	11011101;
	97682 :	11111011;
	97681 :	00000100;
	97680 :	00011000;
	97679 :	00000010;
	97678 :	00011001;
	97677 :	11101101;
	97676 :	00010001;
	97675 :	00000111;
	97674 :	00011000;
	97673 :	00011011;
	97672 :	00011011;
	97671 :	00000100;
	97670 :	00011001;
	97669 :	00000000;
	97668 :	11100101;
	97667 :	00000110;
	97666 :	00000000;
	97665 :	00000010;
	97664 :	00000111;
	97663 :	11110111;
	97662 :	00010101;
	97661 :	11111101;
	97660 :	00000001;
	97659 :	11111111;
	97658 :	00001001;
	97657 :	11100111;
	97656 :	11010111;
	97655 :	11111101;
	97654 :	00001101;
	97653 :	00000000;
	97652 :	11110011;
	97651 :	11111111;
	97650 :	00100110;
	97649 :	11110100;
	97648 :	00101011;
	97647 :	11111111;
	97646 :	00001100;
	97645 :	00001100;
	97644 :	00010001;
	97643 :	11110000;
	97642 :	00010111;
	97641 :	11101011;
	97640 :	11110011;
	97639 :	00001110;
	97638 :	11110011;
	97637 :	11110110;
	97636 :	00001010;
	97635 :	11110110;
	97634 :	11111111;
	97633 :	11110010;
	97632 :	00010010;
	97631 :	11110000;
	97630 :	11110000;
	97629 :	11100010;
	97628 :	11111001;
	97627 :	00000101;
	97626 :	11100110;
	97625 :	00001011;
	97624 :	11101110;
	97623 :	00011101;
	97622 :	00000001;
	97621 :	00001011;
	97620 :	11111111;
	97619 :	11110111;
	97618 :	00001101;
	97617 :	00001100;
	97616 :	00000011;
	97615 :	11011110;
	97614 :	11111111;
	97613 :	00001001;
	97612 :	11110010;
	97611 :	00000110;
	97610 :	00000100;
	97609 :	11100110;
	97608 :	00000011;
	97607 :	11101011;
	97606 :	11110011;
	97605 :	11111111;
	97604 :	11110110;
	97603 :	00000100;
	97602 :	00001001;
	97601 :	00000110;
	97600 :	00000111;
	97599 :	11111010;
	97598 :	00010010;
	97597 :	00001111;
	97596 :	11110100;
	97595 :	00010000;
	97594 :	11111100;
	97593 :	00011011;
	97592 :	00000001;
	97591 :	00001001;
	97590 :	00001001;
	97589 :	00000011;
	97588 :	11110110;
	97587 :	00001110;
	97586 :	00000000;
	97585 :	00000101;
	97584 :	11100001;
	97583 :	00010001;
	97582 :	11101101;
	97581 :	00100110;
	97580 :	00010110;
	97579 :	11110010;
	97578 :	00000101;
	97577 :	11111100;
	97576 :	00010111;
	97575 :	11111101;
	97574 :	11111100;
	97573 :	00000010;
	97572 :	11100110;
	97571 :	00001011;
	97570 :	00110100;
	97569 :	00000011;
	97568 :	11111010;
	97567 :	11111000;
	97566 :	00101011;
	97565 :	00000110;
	97564 :	11101100;
	97563 :	11111001;
	97562 :	00001110;
	97561 :	11101000;
	97560 :	00000011;
	97559 :	11110010;
	97558 :	11111011;
	97557 :	11111001;
	97556 :	00010010;
	97555 :	11110110;
	97554 :	00000100;
	97553 :	11110011;
	97552 :	11111000;
	97551 :	00000110;
	97550 :	11100101;
	97549 :	00001000;
	97548 :	00000011;
	97547 :	00100011;
	97546 :	00000000;
	97545 :	00000000;
	97544 :	11110110;
	97543 :	11010110;
	97542 :	11110100;
	97541 :	11100100;
	97540 :	11101001;
	97539 :	11100111;
	97538 :	11101110;
	97537 :	00000101;
	97536 :	00001100;
	97535 :	00000101;
	97534 :	11111111;
	97533 :	11111101;
	97532 :	11110010;
	97531 :	11011011;
	97530 :	11101001;
	97529 :	11110110;
	97528 :	11111110;
	97527 :	00001100;
	97526 :	00100011;
	97525 :	11110111;
	97524 :	00000011;
	97523 :	00001100;
	97522 :	11101001;
	97521 :	11101111;
	97520 :	00000001;
	97519 :	11110011;
	97518 :	11110010;
	97517 :	11110000;
	97516 :	11111110;
	97515 :	11110010;
	97514 :	11110011;
	97513 :	00001001;
	97512 :	11101110;
	97511 :	11100110;
	97510 :	00000001;
	97509 :	00001111;
	97508 :	00011110;
	97507 :	00010110;
	97506 :	11111110;
	97505 :	11101111;
	97504 :	11100110;
	97503 :	00000101;
	97502 :	11110110;
	97501 :	11101100;
	97500 :	00001101;
	97499 :	00010101;
	97498 :	00001100;
	97497 :	11101111;
	97496 :	11110000;
	97495 :	00000101;
	97494 :	00001011;
	97493 :	11110101;
	97492 :	00001010;
	97491 :	00100110;
	97490 :	00001000;
	97489 :	11110101;
	97488 :	11111010;
	97487 :	11111100;
	97486 :	11111000;
	97485 :	11101100;
	97484 :	11110101;
	97483 :	00001011;
	97482 :	00010011;
	97481 :	00000111;
	97480 :	00101011;
	97479 :	11111011;
	97478 :	11110110;
	97477 :	11101001;
	97476 :	11100000;
	97475 :	11111010;
	97474 :	00000000;
	97473 :	11100111;
	97472 :	11101111;
	97471 :	11111000;
	97470 :	11111110;
	97469 :	11101011;
	97468 :	11111100;
	97467 :	00000001;
	97466 :	11111111;
	97465 :	00001011;
	97464 :	11110000;
	97463 :	00001010;
	97462 :	11111101;
	97461 :	00001000;
	97460 :	11111010;
	97459 :	11111101;
	97458 :	00000001;
	97457 :	00001000;
	97456 :	00010110;
	97455 :	11111100;
	97454 :	00000110;
	97453 :	00011110;
	97452 :	11100011;
	97451 :	11001001;
	97450 :	11011100;
	97449 :	11110001;
	97448 :	11101010;
	97447 :	00000011;
	97446 :	11110110;
	97445 :	00010111;
	97444 :	11110100;
	97443 :	11110111;
	97442 :	11111011;
	97441 :	11110101;
	97440 :	11111001;
	97439 :	00001000;
	97438 :	00001110;
	97437 :	00000111;
	97436 :	00011000;
	97435 :	11101001;
	97434 :	11111010;
	97433 :	00011010;
	97432 :	00110000;
	97431 :	00110000;
	97430 :	00100001;
	97429 :	00100110;
	97428 :	00100111;
	97427 :	00011010;
	97426 :	00000001;
	97425 :	11101011;
	97424 :	11001000;
	97423 :	11010000;
	97422 :	11110100;
	97421 :	11100011;
	97420 :	11111101;
	97419 :	00001000;
	97418 :	00010000;
	97417 :	11111000;
	97416 :	11111100;
	97415 :	00000100;
	97414 :	11111110;
	97413 :	11110000;
	97412 :	00011011;
	97411 :	11101100;
	97410 :	00001101;
	97409 :	11101010;
	97408 :	11101010;
	97407 :	11110100;
	97406 :	11101011;
	97405 :	11111101;
	97404 :	00010011;
	97403 :	00001110;
	97402 :	00010110;
	97401 :	00001110;
	97400 :	00000001;
	97399 :	00000000;
	97398 :	11101110;
	97397 :	11001010;
	97396 :	11010111;
	97395 :	11001110;
	97394 :	11101010;
	97393 :	11101100;
	97392 :	11110010;
	97391 :	11110001;
	97390 :	11000101;
	97389 :	00001100;
	97388 :	11101010;
	97387 :	00010111;
	97386 :	00110011;
	97385 :	11110100;
	97384 :	11111101;
	97383 :	00001010;
	97382 :	00010110;
	97381 :	00011110;
	97380 :	11100100;
	97379 :	00000000;
	97378 :	00000111;
	97377 :	11101110;
	97376 :	00001111;
	97375 :	00001110;
	97374 :	11101010;
	97373 :	00001101;
	97372 :	11110110;
	97371 :	11010110;
	97370 :	11101000;
	97369 :	11100010;
	97368 :	11100100;
	97367 :	00011000;
	97366 :	11101110;
	97365 :	00000000;
	97364 :	00001101;
	97363 :	00001100;
	97362 :	00001011;
	97361 :	11111111;
	97360 :	00001011;
	97359 :	11110000;
	97358 :	00001100;
	97357 :	11111100;
	97356 :	11110001;
	97355 :	11111001;
	97354 :	11100010;
	97353 :	00100011;
	97352 :	11110011;
	97351 :	00101111;
	97350 :	11110011;
	97349 :	00001010;
	97348 :	00001101;
	97347 :	11101001;
	97346 :	00000000;
	97345 :	11111001;
	97344 :	11111000;
	97343 :	11110111;
	97342 :	00000000;
	97341 :	11101101;
	97340 :	00010100;
	97339 :	11100100;
	97338 :	11110001;
	97337 :	00010011;
	97336 :	00000010;
	97335 :	11110111;
	97334 :	11100110;
	97333 :	00000001;
	97332 :	11111010;
	97331 :	11110011;
	97330 :	00000100;
	97329 :	00010110;
	97328 :	11111000;
	97327 :	00000110;
	97326 :	11110111;
	97325 :	11111000;
	97324 :	00001000;
	97323 :	00000111;
	97322 :	00000110;
	97321 :	11101000;
	97320 :	00000100;
	97319 :	11101100;
	97318 :	11100111;
	97317 :	00000011;
	97316 :	11111100;
	97315 :	00001001;
	97314 :	11010111;
	97313 :	00000100;
	97312 :	11101110;
	97311 :	00101010;
	97310 :	00000011;
	97309 :	00001011;
	97308 :	11111010;
	97307 :	00011000;
	97306 :	00001001;
	97305 :	11110001;
	97304 :	11111100;
	97303 :	00100110;
	97302 :	00001110;
	97301 :	11110011;
	97300 :	11110000;
	97299 :	00000100;
	97298 :	00011010;
	97297 :	11101011;
	97296 :	00000101;
	97295 :	11111110;
	97294 :	11110111;
	97293 :	11100010;
	97292 :	11111111;
	97291 :	00001110;
	97290 :	00011001;
	97289 :	11111111;
	97288 :	00000011;
	97287 :	11110101;
	97286 :	11111110;
	97285 :	00011011;
	97284 :	11111110;
	97283 :	00001000;
	97282 :	11011010;
	97281 :	11111100;
	97280 :	00000001;
	97279 :	11111111;
	97278 :	00001011;
	97277 :	11110110;
	97276 :	00001011;
	97275 :	00000011;
	97274 :	00000110;
	97273 :	00001001;
	97272 :	00010100;
	97271 :	11110111;
	97270 :	11111010;
	97269 :	11111110;
	97268 :	11111110;
	97267 :	11100111;
	97266 :	00001110;
	97265 :	11111010;
	97264 :	00000011;
	97263 :	00010101;
	97262 :	00001111;
	97261 :	11101001;
	97260 :	11101011;
	97259 :	00001000;
	97258 :	00001100;
	97257 :	00010000;
	97256 :	11101010;
	97255 :	11110110;
	97254 :	00001101;
	97253 :	00101000;
	97252 :	11111100;
	97251 :	00010011;
	97250 :	00000111;
	97249 :	11110110;
	97248 :	00001100;
	97247 :	00001100;
	97246 :	00000011;
	97245 :	00000010;
	97244 :	11001101;
	97243 :	11111010;
	97242 :	11111010;
	97241 :	00001001;
	97240 :	11111100;
	97239 :	00010100;
	97238 :	00010110;
	97237 :	00000100;
	97236 :	00001001;
	97235 :	00000011;
	97234 :	11110011;
	97233 :	11111100;
	97232 :	11111111;
	97231 :	00001111;
	97230 :	11111001;
	97229 :	00000011;
	97228 :	00010101;
	97227 :	00001100;
	97226 :	00001101;
	97225 :	11110100;
	97224 :	00001111;
	97223 :	11110010;
	97222 :	11111110;
	97221 :	00010011;
	97220 :	00000110;
	97219 :	11111100;
	97218 :	11110011;
	97217 :	00011101;
	97216 :	11101001;
	97215 :	11101000;
	97214 :	00100100;
	97213 :	00000100;
	97212 :	00001101;
	97211 :	00001111;
	97210 :	00010011;
	97209 :	00010010;
	97208 :	00000010;
	97207 :	00011110;
	97206 :	00000100;
	97205 :	11111110;
	97204 :	00000101;
	97203 :	11111001;
	97202 :	00010110;
	97201 :	00010010;
	97200 :	00001000;
	97199 :	00001010;
	97198 :	00001101;
	97197 :	11100110;
	97196 :	00000010;
	97195 :	11111111;
	97194 :	11110001;
	97193 :	11111011;
	97192 :	11101011;
	97191 :	00000110;
	97190 :	00001010;
	97189 :	11111010;
	97188 :	11111110;
	97187 :	11110110;
	97186 :	00000001;
	97185 :	11110100;
	97184 :	00010100;
	97183 :	00001000;
	97182 :	11101100;
	97181 :	11111011;
	97180 :	11110110;
	97179 :	11110111;
	97178 :	00001000;
	97177 :	00001000;
	97176 :	11011001;
	97175 :	11111000;
	97174 :	00001000;
	97173 :	00010011;
	97172 :	11111011;
	97171 :	11101111;
	97170 :	11111100;
	97169 :	11110100;
	97168 :	00000110;
	97167 :	11111001;
	97166 :	00010101;
	97165 :	00000011;
	97164 :	00010001;
	97163 :	00010100;
	97162 :	11101010;
	97161 :	11111001;
	97160 :	11101010;
	97159 :	00000011;
	97158 :	11111100;
	97157 :	11111011;
	97156 :	00010111;
	97155 :	11111101;
	97154 :	11111001;
	97153 :	11110101;
	97152 :	11110110;
	97151 :	11111010;
	97150 :	11100001;
	97149 :	11110101;
	97148 :	00001010;
	97147 :	11111101;
	97146 :	11111000;
	97145 :	00101110;
	97144 :	00000101;
	97143 :	00011011;
	97142 :	00001101;
	97141 :	00001110;
	97140 :	11101101;
	97139 :	00000010;
	97138 :	11101101;
	97137 :	00000001;
	97136 :	00001000;
	97135 :	11101100;
	97134 :	11101101;
	97133 :	11101010;
	97132 :	00000010;
	97131 :	11111000;
	97130 :	00000000;
	97129 :	11110000;
	97128 :	00010000;
	97127 :	00000000;
	97126 :	00001000;
	97125 :	11110001;
	97124 :	11110100;
	97123 :	11100101;
	97122 :	11100010;
	97121 :	11111101;
	97120 :	11101000;
	97119 :	00010001;
	97118 :	00001001;
	97117 :	11111011;
	97116 :	00101100;
	97115 :	00000101;
	97114 :	00010100;
	97113 :	00010111;
	97112 :	00000100;
	97111 :	11110110;
	97110 :	11110011;
	97109 :	11111010;
	97108 :	11111101;
	97107 :	00101100;
	97106 :	00000010;
	97105 :	11110000;
	97104 :	00000000;
	97103 :	00000010;
	97102 :	00011010;
	97101 :	11111100;
	97100 :	11011001;
	97099 :	00001111;
	97098 :	11101000;
	97097 :	11110011;
	97096 :	00001000;
	97095 :	11100100;
	97094 :	11100010;
	97093 :	11011110;
	97092 :	11110101;
	97091 :	11101100;
	97090 :	00010111;
	97089 :	11110010;
	97088 :	00010101;
	97087 :	11111011;
	97086 :	00001100;
	97085 :	00001001;
	97084 :	00000001;
	97083 :	11100100;
	97082 :	11011100;
	97081 :	00000110;
	97080 :	00001111;
	97079 :	00000001;
	97078 :	00010000;
	97077 :	11110100;
	97076 :	00000010;
	97075 :	11110101;
	97074 :	11110100;
	97073 :	11111000;
	97072 :	11110000;
	97071 :	11110000;
	97070 :	11111001;
	97069 :	11110111;
	97068 :	11101101;
	97067 :	11010111;
	97066 :	11100111;
	97065 :	11010110;
	97064 :	11111101;
	97063 :	11111101;
	97062 :	11111011;
	97061 :	00000011;
	97060 :	00010100;
	97059 :	00001011;
	97058 :	00011101;
	97057 :	00010000;
	97056 :	11110110;
	97055 :	00000101;
	97054 :	11010101;
	97053 :	11011101;
	97052 :	11011011;
	97051 :	00001000;
	97050 :	11101011;
	97049 :	00001001;
	97048 :	11111101;
	97047 :	11110111;
	97046 :	11101100;
	97045 :	11110100;
	97044 :	00000101;
	97043 :	11111010;
	97042 :	11101001;
	97041 :	11100011;
	97040 :	11011101;
	97039 :	11011000;
	97038 :	11101010;
	97037 :	00000101;
	97036 :	11011111;
	97035 :	00001000;
	97034 :	00000001;
	97033 :	00101001;
	97032 :	00000111;
	97031 :	00001111;
	97030 :	11110010;
	97029 :	11111110;
	97028 :	00000100;
	97027 :	11110101;
	97026 :	00001001;
	97025 :	11110101;
	97024 :	11110000;
	97023 :	11100101;
	97022 :	11110111;
	97021 :	00001010;
	97020 :	00010111;
	97019 :	00001010;
	97018 :	11101001;
	97017 :	00000010;
	97016 :	00011010;
	97015 :	11001101;
	97014 :	11100101;
	97013 :	00000001;
	97012 :	11100001;
	97011 :	11101010;
	97010 :	11110011;
	97009 :	00001001;
	97008 :	00010011;
	97007 :	11111111;
	97006 :	00000101;
	97005 :	00001010;
	97004 :	11111100;
	97003 :	00011001;
	97002 :	00001011;
	97001 :	00001001;
	97000 :	00001110;
	96999 :	00010000;
	96998 :	11111001;
	96997 :	00000000;
	96996 :	00000110;
	96995 :	11110000;
	96994 :	00000110;
	96993 :	00000010;
	96992 :	11110110;
	96991 :	00000000;
	96990 :	11111101;
	96989 :	11101000;
	96988 :	11111111;
	96987 :	11100001;
	96986 :	11011000;
	96985 :	11100000;
	96984 :	11100101;
	96983 :	11010101;
	96982 :	00000111;
	96981 :	00000110;
	96980 :	11101100;
	96979 :	00001000;
	96978 :	11110100;
	96977 :	00100001;
	96976 :	00000101;
	96975 :	00000001;
	96974 :	00001010;
	96973 :	00000111;
	96972 :	00100000;
	96971 :	00101110;
	96970 :	00001101;
	96969 :	00010001;
	96968 :	11110000;
	96967 :	00000010;
	96966 :	00010010;
	96965 :	00000101;
	96964 :	00000101;
	96963 :	11110110;
	96962 :	00001011;
	96961 :	11110000;
	96960 :	00010100;
	96959 :	11101001;
	96958 :	11100010;
	96957 :	11101100;
	96956 :	11101010;
	96955 :	11110010;
	96954 :	00100101;
	96953 :	00101000;
	96952 :	00000111;
	96951 :	00000110;
	96950 :	00001011;
	96949 :	11110001;
	96948 :	00011001;
	96947 :	00010111;
	96946 :	11111001;
	96945 :	11111100;
	96944 :	00000100;
	96943 :	11111000;
	96942 :	00001111;
	96941 :	00110001;
	96940 :	00010011;
	96939 :	11111010;
	96938 :	11110101;
	96937 :	00011111;
	96936 :	00000110;
	96935 :	11111100;
	96934 :	11101100;
	96933 :	11110110;
	96932 :	11101011;
	96931 :	11111011;
	96930 :	11100000;
	96929 :	11100110;
	96928 :	11101001;
	96927 :	00001111;
	96926 :	00001111;
	96925 :	00000110;
	96924 :	00001110;
	96923 :	00001111;
	96922 :	00010110;
	96921 :	00010110;
	96920 :	11101000;
	96919 :	00001001;
	96918 :	11110111;
	96917 :	00000001;
	96916 :	11110101;
	96915 :	00001100;
	96914 :	00010011;
	96913 :	00100011;
	96912 :	11111000;
	96911 :	00100000;
	96910 :	11111001;
	96909 :	11111000;
	96908 :	11101010;
	96907 :	11101101;
	96906 :	11101010;
	96905 :	11100110;
	96904 :	11111111;
	96903 :	00000001;
	96902 :	11001111;
	96901 :	11111001;
	96900 :	11011010;
	96899 :	00100111;
	96898 :	00000110;
	96897 :	00001101;
	96896 :	00000001;
	96895 :	00000110;
	96894 :	11110011;
	96893 :	11111110;
	96892 :	00000000;
	96891 :	11111111;
	96890 :	11101110;
	96889 :	00001001;
	96888 :	00000101;
	96887 :	11101011;
	96886 :	00000001;
	96885 :	00001111;
	96884 :	11111101;
	96883 :	00000101;
	96882 :	00010000;
	96881 :	00000110;
	96880 :	00000000;
	96879 :	11110001;
	96878 :	00000110;
	96877 :	11110010;
	96876 :	00010010;
	96875 :	11111010;
	96874 :	11110110;
	96873 :	11101010;
	96872 :	11110110;
	96871 :	11100011;
	96870 :	00100000;
	96869 :	00010010;
	96868 :	00000101;
	96867 :	00011101;
	96866 :	00001000;
	96865 :	00001100;
	96864 :	00010010;
	96863 :	11100111;
	96862 :	11100110;
	96861 :	00000010;
	96860 :	11100111;
	96859 :	11011100;
	96858 :	00001101;
	96857 :	00001011;
	96856 :	00010010;
	96855 :	11101110;
	96854 :	11001111;
	96853 :	11110000;
	96852 :	00001101;
	96851 :	11011100;
	96850 :	00001101;
	96849 :	11110111;
	96848 :	11010111;
	96847 :	11101010;
	96846 :	11010011;
	96845 :	00001011;
	96844 :	00001111;
	96843 :	00001101;
	96842 :	11101111;
	96841 :	11111010;
	96840 :	11111011;
	96839 :	00011000;
	96838 :	00000010;
	96837 :	00001001;
	96836 :	00011011;
	96835 :	00001000;
	96834 :	00000110;
	96833 :	00000001;
	96832 :	11011111;
	96831 :	11101011;
	96830 :	11101110;
	96829 :	11011101;
	96828 :	00001100;
	96827 :	00011001;
	96826 :	00000111;
	96825 :	11111000;
	96824 :	00001001;
	96823 :	00001101;
	96822 :	00001010;
	96821 :	11100000;
	96820 :	11110010;
	96819 :	11101001;
	96818 :	11011010;
	96817 :	11100100;
	96816 :	00001001;
	96815 :	11100001;
	96814 :	11110000;
	96813 :	11101111;
	96812 :	11110101;
	96811 :	00010100;
	96810 :	00000000;
	96809 :	11101011;
	96808 :	00111100;
	96807 :	11111100;
	96806 :	00000001;
	96805 :	11101110;
	96804 :	11101010;
	96803 :	11011101;
	96802 :	11011100;
	96801 :	11010001;
	96800 :	00001000;
	96799 :	00000100;
	96798 :	11110110;
	96797 :	11111111;
	96796 :	11111001;
	96795 :	00000000;
	96794 :	11101110;
	96793 :	00001100;
	96792 :	00000011;
	96791 :	11011101;
	96790 :	00010000;
	96789 :	11100110;
	96788 :	11110100;
	96787 :	11111100;
	96786 :	00010101;
	96785 :	11101011;
	96784 :	00000111;
	96783 :	00010111;
	96782 :	11111101;
	96781 :	00001010;
	96780 :	00101001;
	96779 :	00000101;
	96778 :	11110011;
	96777 :	11011100;
	96776 :	11110011;
	96775 :	11101011;
	96774 :	11111101;
	96773 :	00011000;
	96772 :	00000111;
	96771 :	00011011;
	96770 :	00010110;
	96769 :	11111010;
	96768 :	11111001;
	96767 :	00001011;
	96766 :	11111100;
	96765 :	00001111;
	96764 :	00000000;
	96763 :	00010100;
	96762 :	11011100;
	96761 :	11011101;
	96760 :	11100010;
	96759 :	11011111;
	96758 :	00000001;
	96757 :	00001010;
	96756 :	00010011;
	96755 :	00011110;
	96754 :	00000010;
	96753 :	00100100;
	96752 :	00010001;
	96751 :	00011011;
	96750 :	11111000;
	96749 :	11010010;
	96748 :	11100100;
	96747 :	11101000;
	96746 :	11100101;
	96745 :	00000101;
	96744 :	11111011;
	96743 :	11110101;
	96742 :	00010101;
	96741 :	11110111;
	96740 :	00000010;
	96739 :	00010001;
	96738 :	00001100;
	96737 :	00010011;
	96736 :	00110010;
	96735 :	11111010;
	96734 :	00000101;
	96733 :	11101011;
	96732 :	11110100;
	96731 :	00001111;
	96730 :	00000010;
	96729 :	11110101;
	96728 :	11110110;
	96727 :	11111011;
	96726 :	11111110;
	96725 :	01000010;
	96724 :	00010100;
	96723 :	00000111;
	96722 :	11111011;
	96721 :	11100111;
	96720 :	11101011;
	96719 :	11101001;
	96718 :	11101100;
	96717 :	11101111;
	96716 :	00000011;
	96715 :	11011111;
	96714 :	11111010;
	96713 :	11110101;
	96712 :	00100010;
	96711 :	11110101;
	96710 :	11111111;
	96709 :	00000110;
	96708 :	00101100;
	96707 :	00010110;
	96706 :	00010010;
	96705 :	00010000;
	96704 :	11100101;
	96703 :	00011111;
	96702 :	11111111;
	96701 :	00000110;
	96700 :	11101101;
	96699 :	11101011;
	96698 :	00000110;
	96697 :	11111100;
	96696 :	00011100;
	96695 :	00001110;
	96694 :	11101010;
	96693 :	11100111;
	96692 :	11010111;
	96691 :	11011010;
	96690 :	00001100;
	96689 :	00001101;
	96688 :	00000001;
	96687 :	00000100;
	96686 :	00010011;
	96685 :	00000010;
	96684 :	11110100;
	96683 :	11101100;
	96682 :	00001111;
	96681 :	00001001;
	96680 :	00001110;
	96679 :	00000101;
	96678 :	00000111;
	96677 :	00000000;
	96676 :	11101100;
	96675 :	00000101;
	96674 :	11110011;
	96673 :	11100000;
	96672 :	11111110;
	96671 :	00100100;
	96670 :	00011001;
	96669 :	00110100;
	96668 :	00011101;
	96667 :	00000011;
	96666 :	11101011;
	96665 :	11100101;
	96664 :	11010111;
	96663 :	11011110;
	96662 :	00000000;
	96661 :	11100100;
	96660 :	11111110;
	96659 :	11011110;
	96658 :	11011100;
	96657 :	11101010;
	96656 :	00011000;
	96655 :	00000100;
	96654 :	00011100;
	96653 :	00100110;
	96652 :	00010011;
	96651 :	00010100;
	96650 :	00000101;
	96649 :	11101000;
	96648 :	00010010;
	96647 :	00000011;
	96646 :	00001110;
	96645 :	00001001;
	96644 :	00000000;
	96643 :	00000110;
	96642 :	11111001;
	96641 :	00000111;
	96640 :	00011001;
	96639 :	00000010;
	96638 :	11101101;
	96637 :	11111010;
	96636 :	11001000;
	96635 :	11011001;
	96634 :	00011010;
	96633 :	11110001;
	96632 :	11101100;
	96631 :	00000101;
	96630 :	00011010;
	96629 :	00000010;
	96628 :	00000110;
	96627 :	00001101;
	96626 :	11110111;
	96625 :	00000001;
	96624 :	00100011;
	96623 :	00010111;
	96622 :	11101011;
	96621 :	00010101;
	96620 :	00010000;
	96619 :	00000110;
	96618 :	11101001;
	96617 :	00001010;
	96616 :	00000000;
	96615 :	00000011;
	96614 :	00101011;
	96613 :	00010101;
	96612 :	00100110;
	96611 :	00001011;
	96610 :	11011000;
	96609 :	11011111;
	96608 :	11101101;
	96607 :	11111011;
	96606 :	11110110;
	96605 :	11111110;
	96604 :	00100010;
	96603 :	11111010;
	96602 :	00000001;
	96601 :	11111001;
	96600 :	11101111;
	96599 :	11111011;
	96598 :	00011110;
	96597 :	00010001;
	96596 :	00100000;
	96595 :	00011001;
	96594 :	00101011;
	96593 :	00000101;
	96592 :	11111001;
	96591 :	00001101;
	96590 :	00101011;
	96589 :	00011001;
	96588 :	11111011;
	96587 :	00000100;
	96586 :	00001010;
	96585 :	00001000;
	96584 :	11111101;
	96583 :	00010001;
	96582 :	11110010;
	96581 :	00001100;
	96580 :	11100110;
	96579 :	11101111;
	96578 :	00001001;
	96577 :	00100001;
	96576 :	11111000;
	96575 :	00001000;
	96574 :	00001101;
	96573 :	11111101;
	96572 :	00001101;
	96571 :	11100011;
	96570 :	00000010;
	96569 :	00100011;
	96568 :	11111110;
	96567 :	00001101;
	96566 :	00001111;
	96565 :	00000110;
	96564 :	00010010;
	96563 :	11111010;
	96562 :	11111011;
	96561 :	00001011;
	96560 :	11110001;
	96559 :	11101010;
	96558 :	11101000;
	96557 :	11100101;
	96556 :	11011110;
	96555 :	11011100;
	96554 :	11111000;
	96553 :	11110010;
	96552 :	11100101;
	96551 :	11111010;
	96550 :	00000001;
	96549 :	11101100;
	96548 :	11110101;
	96547 :	11101100;
	96546 :	00001101;
	96545 :	00011110;
	96544 :	11111000;
	96543 :	00000001;
	96542 :	00000110;
	96541 :	11111011;
	96540 :	00010101;
	96539 :	00000101;
	96538 :	00010011;
	96537 :	00011110;
	96536 :	00001110;
	96535 :	00001011;
	96534 :	00001101;
	96533 :	11110010;
	96532 :	00011101;
	96531 :	11111101;
	96530 :	11111111;
	96529 :	11111101;
	96528 :	11101110;
	96527 :	11110001;
	96526 :	11111011;
	96525 :	00001110;
	96524 :	11110011;
	96523 :	00001101;
	96522 :	11111110;
	96521 :	00000100;
	96520 :	00001010;
	96519 :	00010010;
	96518 :	11100111;
	96517 :	00100010;
	96516 :	00001001;
	96515 :	00001110;
	96514 :	00010101;
	96513 :	00000111;
	96512 :	11101000;
	96511 :	00011100;
	96510 :	11111101;
	96509 :	00000001;
	96508 :	00001000;
	96507 :	00100100;
	96506 :	00001100;
	96505 :	00000010;
	96504 :	11110010;
	96503 :	11101111;
	96502 :	00001000;
	96501 :	11111000;
	96500 :	11101111;
	96499 :	11111100;
	96498 :	00001010;
	96497 :	00001010;
	96496 :	00001101;
	96495 :	00000001;
	96494 :	00001010;
	96493 :	11100011;
	96492 :	00011001;
	96491 :	00000110;
	96490 :	00000101;
	96489 :	11110100;
	96488 :	11110000;
	96487 :	11110011;
	96486 :	11110010;
	96485 :	11110001;
	96484 :	11101011;
	96483 :	11011111;
	96482 :	00001001;
	96481 :	11100111;
	96480 :	11110110;
	96479 :	11111001;
	96478 :	00001100;
	96477 :	11110110;
	96476 :	00101101;
	96475 :	11101011;
	96474 :	00000110;
	96473 :	00010000;
	96472 :	11111011;
	96471 :	00001100;
	96470 :	00000001;
	96469 :	11111000;
	96468 :	00000010;
	96467 :	00001000;
	96466 :	00000100;
	96465 :	00010111;
	96464 :	00001100;
	96463 :	00000101;
	96462 :	00000100;
	96461 :	00000101;
	96460 :	11111011;
	96459 :	11110111;
	96458 :	11111110;
	96457 :	11111111;
	96456 :	00001001;
	96455 :	11101011;
	96454 :	00001110;
	96453 :	11111000;
	96452 :	00001000;
	96451 :	00000100;
	96450 :	11101001;
	96449 :	00001010;
	96448 :	11101011;
	96447 :	11101011;
	96446 :	00000100;
	96445 :	11101010;
	96444 :	00001011;
	96443 :	00001101;
	96442 :	00000010;
	96441 :	11101010;
	96440 :	00000001;
	96439 :	00010000;
	96438 :	11101001;
	96437 :	00000100;
	96436 :	00000110;
	96435 :	00001000;
	96434 :	00101001;
	96433 :	00000011;
	96432 :	11110101;
	96431 :	11111011;
	96430 :	00010011;
	96429 :	00000110;
	96428 :	00011010;
	96427 :	11110111;
	96426 :	00011110;
	96425 :	00010110;
	96424 :	11111101;
	96423 :	11111010;
	96422 :	11110111;
	96421 :	11111110;
	96420 :	00010100;
	96419 :	11110010;
	96418 :	11111101;
	96417 :	00010001;
	96416 :	11111110;
	96415 :	11111011;
	96414 :	00011010;
	96413 :	00001011;
	96412 :	00100001;
	96411 :	00000100;
	96410 :	11111110;
	96409 :	00001101;
	96408 :	00010110;
	96407 :	00000001;
	96406 :	11111111;
	96405 :	11111100;
	96404 :	00000010;
	96403 :	11110001;
	96402 :	00010001;
	96401 :	00010000;
	96400 :	11101110;
	96399 :	11111011;
	96398 :	11110101;
	96397 :	11001111;
	96396 :	00000010;
	96395 :	00000110;
	96394 :	11110110;
	96393 :	11110101;
	96392 :	11111000;
	96391 :	00000100;
	96390 :	00000100;
	96389 :	00000011;
	96388 :	11111010;
	96387 :	00011101;
	96386 :	11111011;
	96385 :	00010001;
	96384 :	00001100;
	96383 :	00000111;
	96382 :	11100001;
	96381 :	11110011;
	96380 :	11101010;
	96379 :	11110101;
	96378 :	11100010;
	96377 :	00011001;
	96376 :	11101100;
	96375 :	11101100;
	96374 :	11111000;
	96373 :	00001000;
	96372 :	00010100;
	96371 :	11111000;
	96370 :	00001001;
	96369 :	11110100;
	96368 :	11111001;
	96367 :	00001100;
	96366 :	00100001;
	96365 :	00001011;
	96364 :	00000001;
	96363 :	11100010;
	96362 :	00011000;
	96361 :	11110011;
	96360 :	00010101;
	96359 :	00001110;
	96358 :	11101001;
	96357 :	00011000;
	96356 :	00000000;
	96355 :	00001110;
	96354 :	00000100;
	96353 :	11110000;
	96352 :	11101001;
	96351 :	11110111;
	96350 :	00001110;
	96349 :	11111010;
	96348 :	00000010;
	96347 :	00001111;
	96346 :	11110010;
	96345 :	11111000;
	96344 :	11111011;
	96343 :	11110011;
	96342 :	11011010;
	96341 :	11111100;
	96340 :	11110111;
	96339 :	00000100;
	96338 :	11111011;
	96337 :	11100110;
	96336 :	11100010;
	96335 :	11111111;
	96334 :	00000010;
	96333 :	11111000;
	96332 :	11111001;
	96331 :	00001000;
	96330 :	11110100;
	96329 :	11111101;
	96328 :	11111110;
	96327 :	00000010;
	96326 :	00010010;
	96325 :	11111111;
	96324 :	00011000;
	96323 :	11111111;
	96322 :	00000010;
	96321 :	00001010;
	96320 :	11111001;
	96319 :	00010111;
	96318 :	11100110;
	96317 :	00000000;
	96316 :	00000011;
	96315 :	00000001;
	96314 :	11110110;
	96313 :	00000010;
	96312 :	00001101;
	96311 :	00010100;
	96310 :	11101101;
	96309 :	11110101;
	96308 :	11111000;
	96307 :	11100010;
	96306 :	00000011;
	96305 :	00000011;
	96304 :	11101001;
	96303 :	00000101;
	96302 :	00001101;
	96301 :	11110100;
	96300 :	11111100;
	96299 :	11111101;
	96298 :	00001100;
	96297 :	00001010;
	96296 :	00010000;
	96295 :	00001010;
	96294 :	00001010;
	96293 :	11011100;
	96292 :	11100010;
	96291 :	00000111;
	96290 :	11101000;
	96289 :	11100100;
	96288 :	00011010;
	96287 :	11111010;
	96286 :	11111001;
	96285 :	11111111;
	96284 :	00010001;
	96283 :	11110110;
	96282 :	11110100;
	96281 :	00001111;
	96280 :	00010111;
	96279 :	11111110;
	96278 :	11110000;
	96277 :	00001000;
	96276 :	00000000;
	96275 :	11110001;
	96274 :	00010110;
	96273 :	00010111;
	96272 :	11111000;
	96271 :	11110111;
	96270 :	11101111;
	96269 :	11100011;
	96268 :	11111111;
	96267 :	00000010;
	96266 :	00010100;
	96265 :	11111000;
	96264 :	11111111;
	96263 :	00010011;
	96262 :	00000100;
	96261 :	11111110;
	96260 :	00010010;
	96259 :	00000111;
	96258 :	11110000;
	96257 :	00000010;
	96256 :	00001100;
	96255 :	11111001;
	96254 :	00000011;
	96253 :	11110000;
	96252 :	11111100;
	96251 :	00001000;
	96250 :	00001010;
	96249 :	00101001;
	96248 :	00000100;
	96247 :	00010110;
	96246 :	00010110;
	96245 :	00000100;
	96244 :	00100101;
	96243 :	11111001;
	96242 :	11101000;
	96241 :	11110011;
	96240 :	00000001;
	96239 :	11101111;
	96238 :	11111011;
	96237 :	00000010;
	96236 :	00001110;
	96235 :	11111110;
	96234 :	00010100;
	96233 :	00001101;
	96232 :	11110101;
	96231 :	00000000;
	96230 :	11111111;
	96229 :	11111010;
	96228 :	00010011;
	96227 :	11101111;
	96226 :	00000110;
	96225 :	11100000;
	96224 :	00001011;
	96223 :	00010001;
	96222 :	00000100;
	96221 :	00001101;
	96220 :	00000110;
	96219 :	00101001;
	96218 :	00000000;
	96217 :	00100001;
	96216 :	00011011;
	96215 :	00001011;
	96214 :	00011000;
	96213 :	00001111;
	96212 :	00100011;
	96211 :	00000100;
	96210 :	11111011;
	96209 :	00001101;
	96208 :	00001100;
	96207 :	00010110;
	96206 :	00011100;
	96205 :	11110010;
	96204 :	00010110;
	96203 :	00001110;
	96202 :	00010000;
	96201 :	11110000;
	96200 :	11111001;
	96199 :	11011101;
	96198 :	00000110;
	96197 :	00001100;
	96196 :	00001100;
	96195 :	00001100;
	96194 :	00010101;
	96193 :	00001100;
	96192 :	11111011;
	96191 :	00001111;
	96190 :	11111001;
	96189 :	11110010;
	96188 :	00011100;
	96187 :	00100111;
	96186 :	00100001;
	96185 :	11110101;
	96184 :	11110100;
	96183 :	11101100;
	96182 :	11101011;
	96181 :	11110111;
	96180 :	11101110;
	96179 :	00000001;
	96178 :	00001000;
	96177 :	00000011;
	96176 :	11110001;
	96175 :	00000010;
	96174 :	00000001;
	96173 :	11101111;
	96172 :	11110100;
	96171 :	11111110;
	96170 :	11101100;
	96169 :	00010101;
	96168 :	00011010;
	96167 :	11110111;
	96166 :	00000101;
	96165 :	00011101;
	96164 :	11110111;
	96163 :	11110100;
	96162 :	11101100;
	96161 :	11100010;
	96160 :	11100111;
	96159 :	11111100;
	96158 :	00000110;
	96157 :	11110010;
	96156 :	11111000;
	96155 :	11110000;
	96154 :	11111110;
	96153 :	11110010;
	96152 :	00000101;
	96151 :	11110100;
	96150 :	11100111;
	96149 :	00000001;
	96148 :	11110110;
	96147 :	11111111;
	96146 :	11111111;
	96145 :	00100000;
	96144 :	11111010;
	96143 :	00010011;
	96142 :	11111101;
	96141 :	00000011;
	96140 :	00011100;
	96139 :	11111011;
	96138 :	00000111;
	96137 :	11101010;
	96136 :	11111101;
	96135 :	11101001;
	96134 :	11110110;
	96133 :	11101011;
	96132 :	11111000;
	96131 :	11111001;
	96130 :	11111010;
	96129 :	11111101;
	96128 :	00000100;
	96127 :	11110010;
	96126 :	11111011;
	96125 :	00000001;
	96124 :	00010001;
	96123 :	00010001;
	96122 :	00001111;
	96121 :	11100000;
	96120 :	00000101;
	96119 :	00000111;
	96118 :	00000000;
	96117 :	00001011;
	96116 :	00000110;
	96115 :	11110100;
	96114 :	11101100;
	96113 :	11101001;
	96112 :	11111110;
	96111 :	11110100;
	96110 :	11011010;
	96109 :	00001101;
	96108 :	11100011;
	96107 :	11101111;
	96106 :	11010111;
	96105 :	11001010;
	96104 :	11100011;
	96103 :	11110000;
	96102 :	11101011;
	96101 :	11110001;
	96100 :	11110101;
	96099 :	11101111;
	96098 :	11110010;
	96097 :	00001101;
	96096 :	00010100;
	96095 :	11111010;
	96094 :	11111101;
	96093 :	11111111;
	96092 :	00001100;
	96091 :	11101110;
	96090 :	00001010;
	96089 :	11101011;
	96088 :	00000101;
	96087 :	00001000;
	96086 :	11111000;
	96085 :	11111000;
	96084 :	11101101;
	96083 :	11011001;
	96082 :	11111111;
	96081 :	11101000;
	96080 :	11111101;
	96079 :	11110110;
	96078 :	11110110;
	96077 :	00000010;
	96076 :	11101101;
	96075 :	00000010;
	96074 :	00000011;
	96073 :	00000000;
	96072 :	00000111;
	96071 :	00010010;
	96070 :	11110101;
	96069 :	00000000;
	96068 :	11101010;
	96067 :	00010001;
	96066 :	11100100;
	96065 :	11111001;
	96064 :	00001110;
	96063 :	00001001;
	96062 :	00000011;
	96061 :	11111101;
	96060 :	00001101;
	96059 :	11101101;
	96058 :	00001000;
	96057 :	11111111;
	96056 :	11101111;
	96055 :	11100100;
	96054 :	11100000;
	96053 :	11100110;
	96052 :	11100101;
	96051 :	00000000;
	96050 :	11110100;
	96049 :	00001011;
	96048 :	11010110;
	96047 :	00000010;
	96046 :	00000011;
	96045 :	00000100;
	96044 :	11110100;
	96043 :	11011101;
	96042 :	00001001;
	96041 :	11101110;
	96040 :	00000000;
	96039 :	00010101;
	96038 :	00010011;
	96037 :	11101101;
	96036 :	11111101;
	96035 :	11110010;
	96034 :	11111101;
	96033 :	11110110;
	96032 :	11101101;
	96031 :	00011101;
	96030 :	00000101;
	96029 :	00001101;
	96028 :	00000101;
	96027 :	11111010;
	96026 :	11101000;
	96025 :	00011100;
	96024 :	00100000;
	96023 :	00010011;
	96022 :	00010001;
	96021 :	00001000;
	96020 :	11100101;
	96019 :	00001100;
	96018 :	11110010;
	96017 :	11011111;
	96016 :	00000110;
	96015 :	00010010;
	96014 :	11111000;
	96013 :	00001111;
	96012 :	11110010;
	96011 :	11111110;
	96010 :	00010110;
	96009 :	11110111;
	96008 :	11101101;
	96007 :	11100101;
	96006 :	00010101;
	96005 :	00011001;
	96004 :	11111111;
	96003 :	00001101;
	96002 :	11101011;
	96001 :	11101001;
	96000 :	00010100;
	95999 :	00001011;
	95998 :	11100010;
	95997 :	00011101;
	95996 :	00100100;
	95995 :	00101001;
	95994 :	00001000;
	95993 :	11101100;
	95992 :	11111111;
	95991 :	11111010;
	95990 :	11111110;
	95989 :	00000000;
	95988 :	11011000;
	95987 :	00010101;
	95986 :	00000101;
	95985 :	11110111;
	95984 :	11101011;
	95983 :	11100100;
	95982 :	00001101;
	95981 :	00001100;
	95980 :	00001000;
	95979 :	00000011;
	95978 :	00000101;
	95977 :	00001010;
	95976 :	11110010;
	95975 :	00011010;
	95974 :	00000010;
	95973 :	00001011;
	95972 :	00001100;
	95971 :	00001001;
	95970 :	00110100;
	95969 :	00101010;
	95968 :	00100010;
	95967 :	00011100;
	95966 :	11110111;
	95965 :	11110111;
	95964 :	11110110;
	95963 :	11111101;
	95962 :	11110100;
	95961 :	11110010;
	95960 :	11111001;
	95959 :	11011110;
	95958 :	00001011;
	95957 :	00000101;
	95956 :	11110111;
	95955 :	11011110;
	95954 :	00000100;
	95953 :	00010100;
	95952 :	11110110;
	95951 :	11110110;
	95950 :	00001111;
	95949 :	11110100;
	95948 :	11110010;
	95947 :	00000001;
	95946 :	11111111;
	95945 :	11100010;
	95944 :	11111100;
	95943 :	00000001;
	95942 :	00000001;
	95941 :	00000111;
	95940 :	11101110;
	95939 :	00000101;
	95938 :	11111111;
	95937 :	00001011;
	95936 :	00100000;
	95935 :	00000100;
	95934 :	11111001;
	95933 :	00011001;
	95932 :	11111101;
	95931 :	11111011;
	95930 :	11111110;
	95929 :	00010010;
	95928 :	00001010;
	95927 :	00001110;
	95926 :	11111100;
	95925 :	00010010;
	95924 :	11100100;
	95923 :	11111011;
	95922 :	11111111;
	95921 :	11100111;
	95920 :	11111000;
	95919 :	11010101;
	95918 :	11100100;
	95917 :	11101011;
	95916 :	11110110;
	95915 :	00001100;
	95914 :	00100001;
	95913 :	00000011;
	95912 :	00000111;
	95911 :	11110001;
	95910 :	11011011;
	95909 :	11111001;
	95908 :	11111011;
	95907 :	11110110;
	95906 :	00000100;
	95905 :	00001101;
	95904 :	00000110;
	95903 :	11111000;
	95902 :	11111010;
	95901 :	00001000;
	95900 :	11110011;
	95899 :	11111001;
	95898 :	11111000;
	95897 :	00001110;
	95896 :	00001011;
	95895 :	00001001;
	95894 :	11111011;
	95893 :	11100110;
	95892 :	00000001;
	95891 :	11010111;
	95890 :	11011111;
	95889 :	11101101;
	95888 :	00000000;
	95887 :	00001110;
	95886 :	11111110;
	95885 :	00000011;
	95884 :	00000011;
	95883 :	11110010;
	95882 :	11111110;
	95881 :	11110100;
	95880 :	00000011;
	95879 :	11111100;
	95878 :	11100100;
	95877 :	00000010;
	95876 :	11101000;
	95875 :	00000001;
	95874 :	00100100;
	95873 :	00000100;
	95872 :	00000100;
	95871 :	00011110;
	95870 :	11111100;
	95869 :	00000001;
	95868 :	11111010;
	95867 :	00001010;
	95866 :	11110001;
	95865 :	11111100;
	95864 :	00000110;
	95863 :	11111100;
	95862 :	11100000;
	95861 :	11111110;
	95860 :	00011010;
	95859 :	00000100;
	95858 :	11111110;
	95857 :	00010111;
	95856 :	11101010;
	95855 :	00001101;
	95854 :	11110010;
	95853 :	00001011;
	95852 :	11111110;
	95851 :	00001111;
	95850 :	11111001;
	95849 :	11110100;
	95848 :	00001001;
	95847 :	00001110;
	95846 :	11110100;
	95845 :	00001001;
	95844 :	11101110;
	95843 :	11100110;
	95842 :	00011100;
	95841 :	00100110;
	95840 :	00011111;
	95839 :	11101111;
	95838 :	11101011;
	95837 :	11110000;
	95836 :	00000101;
	95835 :	11110111;
	95834 :	00001010;
	95833 :	00001110;
	95832 :	00010101;
	95831 :	00010110;
	95830 :	00010000;
	95829 :	00001011;
	95828 :	11111011;
	95827 :	00000011;
	95826 :	11100000;
	95825 :	00001010;
	95824 :	00001111;
	95823 :	11101110;
	95822 :	11110001;
	95821 :	11101011;
	95820 :	11110001;
	95819 :	11101010;
	95818 :	00010100;
	95817 :	00000110;
	95816 :	11111000;
	95815 :	11101111;
	95814 :	00000111;
	95813 :	00100101;
	95812 :	00011000;
	95811 :	00010000;
	95810 :	11111101;
	95809 :	00000110;
	95808 :	11111011;
	95807 :	00000110;
	95806 :	00001010;
	95805 :	00100010;
	95804 :	00010010;
	95803 :	00001011;
	95802 :	11111100;
	95801 :	00001001;
	95800 :	00011000;
	95799 :	00011001;
	95798 :	00000011;
	95797 :	11110110;
	95796 :	00000111;
	95795 :	00001000;
	95794 :	11110110;
	95793 :	11110010;
	95792 :	11111000;
	95791 :	00000111;
	95790 :	00010111;
	95789 :	00001011;
	95788 :	11111111;
	95787 :	00000101;
	95786 :	00010110;
	95785 :	11011011;
	95784 :	11110100;
	95783 :	11111010;
	95782 :	00001110;
	95781 :	11110010;
	95780 :	11101010;
	95779 :	00010001;
	95778 :	00001110;
	95777 :	00001000;
	95776 :	00000111;
	95775 :	00010001;
	95774 :	00010010;
	95773 :	00000110;
	95772 :	11111111;
	95771 :	00011110;
	95770 :	11111101;
	95769 :	11111000;
	95768 :	00001101;
	95767 :	00011011;
	95766 :	11111011;
	95765 :	11110000;
	95764 :	00000011;
	95763 :	11001110;
	95762 :	00010011;
	95761 :	00010101;
	95760 :	00001001;
	95759 :	11100010;
	95758 :	00001000;
	95757 :	11110001;
	95756 :	11101011;
	95755 :	11110000;
	95754 :	00100100;
	95753 :	00000101;
	95752 :	11110111;
	95751 :	00010000;
	95750 :	11100111;
	95749 :	00001000;
	95748 :	00011000;
	95747 :	11101011;
	95746 :	11111011;
	95745 :	00010010;
	95744 :	00011110;
	95743 :	11111001;
	95742 :	00000011;
	95741 :	11110110;
	95740 :	11110001;
	95739 :	00010000;
	95738 :	11110000;
	95737 :	00010100;
	95736 :	00000000;
	95735 :	00101001;
	95734 :	11111001;
	95733 :	00001001;
	95732 :	00001110;
	95731 :	11101110;
	95730 :	11111000;
	95729 :	11110110;
	95728 :	00000000;
	95727 :	00001000;
	95726 :	00011010;
	95725 :	00001001;
	95724 :	11110101;
	95723 :	11110010;
	95722 :	00000010;
	95721 :	00011001;
	95720 :	00011000;
	95719 :	11101100;
	95718 :	00001110;
	95717 :	11111111;
	95716 :	00000100;
	95715 :	00000011;
	95714 :	11111111;
	95713 :	11110111;
	95712 :	00001010;
	95711 :	11110000;
	95710 :	11111100;
	95709 :	00000010;
	95708 :	11111000;
	95707 :	11100000;
	95706 :	11110010;
	95705 :	11100110;
	95704 :	11100110;
	95703 :	11111001;
	95702 :	11111000;
	95701 :	00000001;
	95700 :	11110100;
	95699 :	11110011;
	95698 :	11110001;
	95697 :	00000010;
	95696 :	00010111;
	95695 :	11101010;
	95694 :	11110011;
	95693 :	11111011;
	95692 :	11101100;
	95691 :	11111011;
	95690 :	11111010;
	95689 :	00001000;
	95688 :	00011010;
	95687 :	00000100;
	95686 :	00000101;
	95685 :	00001110;
	95684 :	11111010;
	95683 :	11110011;
	95682 :	00010110;
	95681 :	00000001;
	95680 :	11111111;
	95679 :	00010101;
	95678 :	00010011;
	95677 :	11111011;
	95676 :	11111011;
	95675 :	00000111;
	95674 :	00011010;
	95673 :	11110100;
	95672 :	11110000;
	95671 :	11110100;
	95670 :	00010111;
	95669 :	11111011;
	95668 :	11110011;
	95667 :	11011100;
	95666 :	11011000;
	95665 :	00010110;
	95664 :	00001011;
	95663 :	11111101;
	95662 :	00001100;
	95661 :	00001111;
	95660 :	00000000;
	95659 :	11100100;
	95658 :	00000101;
	95657 :	11111000;
	95656 :	00000010;
	95655 :	00100001;
	95654 :	00001000;
	95653 :	00001100;
	95652 :	11110010;
	95651 :	11100001;
	95650 :	00000001;
	95649 :	00010111;
	95648 :	11111110;
	95647 :	00000110;
	95646 :	00010010;
	95645 :	11011001;
	95644 :	11011111;
	95643 :	11111011;
	95642 :	11101001;
	95641 :	11111111;
	95640 :	00001010;
	95639 :	00001010;
	95638 :	00000000;
	95637 :	00000100;
	95636 :	00010111;
	95635 :	00000000;
	95634 :	11111000;
	95633 :	11111011;
	95632 :	11100101;
	95631 :	00011011;
	95630 :	00000000;
	95629 :	00011000;
	95628 :	11111101;
	95627 :	00000110;
	95626 :	00001001;
	95625 :	00000110;
	95624 :	11111111;
	95623 :	00001100;
	95622 :	11101111;
	95621 :	11111111;
	95620 :	11111010;
	95619 :	11110100;
	95618 :	00010110;
	95617 :	11110101;
	95616 :	11111010;
	95615 :	00000001;
	95614 :	11100001;
	95613 :	11101011;
	95612 :	11101101;
	95611 :	11111111;
	95610 :	00010110;
	95609 :	11111100;
	95608 :	11101001;
	95607 :	11100111;
	95606 :	11100100;
	95605 :	00000101;
	95604 :	00000101;
	95603 :	11110111;
	95602 :	11111001;
	95601 :	00000101;
	95600 :	00001111;
	95599 :	11110101;
	95598 :	00100010;
	95597 :	00001111;
	95596 :	11110011;
	95595 :	11101100;
	95594 :	00000000;
	95593 :	11100011;
	95592 :	00100000;
	95591 :	00001110;
	95590 :	00000011;
	95589 :	11111100;
	95588 :	00010110;
	95587 :	00010101;
	95586 :	11110111;
	95585 :	11110001;
	95584 :	00010010;
	95583 :	00000000;
	95582 :	11011001;
	95581 :	00001110;
	95580 :	00010100;
	95579 :	11111101;
	95578 :	00001101;
	95577 :	00000000;
	95576 :	11110100;
	95575 :	11111110;
	95574 :	00010001;
	95573 :	00000010;
	95572 :	11111101;
	95571 :	11110100;
	95570 :	00010000;
	95569 :	00010011;
	95568 :	11111101;
	95567 :	11101110;
	95566 :	11100010;
	95565 :	11110110;
	95564 :	11101111;
	95563 :	00011111;
	95562 :	00010000;
	95561 :	00001111;
	95560 :	11111001;
	95559 :	11110001;
	95558 :	11111010;
	95557 :	00000011;
	95556 :	00011011;
	95555 :	00000000;
	95554 :	11110101;
	95553 :	11110111;
	95552 :	11111100;
	95551 :	00011101;
	95550 :	00010100;
	95549 :	00110101;
	95548 :	00001100;
	95547 :	00010001;
	95546 :	00000000;
	95545 :	11100101;
	95544 :	11111001;
	95543 :	11111000;
	95542 :	11110000;
	95541 :	11011100;
	95540 :	11110001;
	95539 :	11101111;
	95538 :	00011011;
	95537 :	11111101;
	95536 :	00100010;
	95535 :	00001111;
	95534 :	00000011;
	95533 :	00010111;
	95532 :	00101001;
	95531 :	00001010;
	95530 :	00001101;
	95529 :	11111001;
	95528 :	00001000;
	95527 :	11101111;
	95526 :	00011000;
	95525 :	11101001;
	95524 :	00000100;
	95523 :	11101111;
	95522 :	00001001;
	95521 :	00010010;
	95520 :	00000001;
	95519 :	00100100;
	95518 :	00001010;
	95517 :	00000100;
	95516 :	11101110;
	95515 :	11111100;
	95514 :	11011111;
	95513 :	00000010;
	95512 :	11110011;
	95511 :	11111111;
	95510 :	00010100;
	95509 :	00000111;
	95508 :	00000000;
	95507 :	00010101;
	95506 :	00000001;
	95505 :	11111010;
	95504 :	00000111;
	95503 :	00000111;
	95502 :	00011010;
	95501 :	11010110;
	95500 :	11111011;
	95499 :	11100010;
	95498 :	11101100;
	95497 :	11111011;
	95496 :	00000010;
	95495 :	00001110;
	95494 :	11110110;
	95493 :	00100011;
	95492 :	00100001;
	95491 :	00010111;
	95490 :	00001011;
	95489 :	11111101;
	95488 :	11111010;
	95487 :	00000100;
	95486 :	11111111;
	95485 :	00000100;
	95484 :	11110100;
	95483 :	00010001;
	95482 :	11110100;
	95481 :	00001001;
	95480 :	11111000;
	95479 :	00000110;
	95478 :	00010101;
	95477 :	00001101;
	95476 :	11100110;
	95475 :	11011101;
	95474 :	00000001;
	95473 :	11100001;
	95472 :	11110100;
	95471 :	11110110;
	95470 :	11101000;
	95469 :	00010001;
	95468 :	00001001;
	95467 :	00000001;
	95466 :	00000010;
	95465 :	00000010;
	95464 :	00100000;
	95463 :	00010110;
	95462 :	00101011;
	95461 :	11111101;
	95460 :	00001011;
	95459 :	11101000;
	95458 :	00001000;
	95457 :	11110010;
	95456 :	00010011;
	95455 :	00101011;
	95454 :	11111010;
	95453 :	11111001;
	95452 :	11010001;
	95451 :	00001110;
	95450 :	11100100;
	95449 :	11111010;
	95448 :	11111111;
	95447 :	11100011;
	95446 :	00000000;
	95445 :	11110011;
	95444 :	11101111;
	95443 :	11101100;
	95442 :	11100010;
	95441 :	11110001;
	95440 :	00001010;
	95439 :	00011111;
	95438 :	11111011;
	95437 :	00001001;
	95436 :	00001101;
	95435 :	11111100;
	95434 :	00011000;
	95433 :	00100101;
	95432 :	00001001;
	95431 :	00100011;
	95430 :	00010100;
	95429 :	00000110;
	95428 :	11111011;
	95427 :	11111010;
	95426 :	00001111;
	95425 :	00010011;
	95424 :	11101011;
	95423 :	11111100;
	95422 :	11111000;
	95421 :	11111000;
	95420 :	11101111;
	95419 :	11110000;
	95418 :	11110011;
	95417 :	00000001;
	95416 :	11110011;
	95415 :	00000111;
	95414 :	11110110;
	95413 :	11111110;
	95412 :	00000010;
	95411 :	11110111;
	95410 :	11111110;
	95409 :	11011000;
	95408 :	00000001;
	95407 :	00010111;
	95406 :	00101000;
	95405 :	00000001;
	95404 :	00010010;
	95403 :	00000111;
	95402 :	00010011;
	95401 :	00001111;
	95400 :	00010001;
	95399 :	00001000;
	95398 :	00001011;
	95397 :	00010101;
	95396 :	00110000;
	95395 :	11101101;
	95394 :	11110111;
	95393 :	11101100;
	95392 :	00001110;
	95391 :	00010100;
	95390 :	00001001;
	95389 :	11101000;
	95388 :	11011111;
	95387 :	11111011;
	95386 :	00001011;
	95385 :	00000101;
	95384 :	11111100;
	95383 :	11101101;
	95382 :	11101000;
	95381 :	11010010;
	95380 :	11011111;
	95379 :	00100001;
	95378 :	11111000;
	95377 :	00001111;
	95376 :	00100011;
	95375 :	00001000;
	95374 :	00011100;
	95373 :	00000011;
	95372 :	11111111;
	95371 :	00001100;
	95370 :	00010100;
	95369 :	11111110;
	95368 :	00010101;
	95367 :	11110001;
	95366 :	11111010;
	95365 :	00000110;
	95364 :	00010000;
	95363 :	11101100;
	95362 :	11101001;
	95361 :	11101110;
	95360 :	11011011;
	95359 :	00000001;
	95358 :	11111110;
	95357 :	11111110;
	95356 :	00000110;
	95355 :	11100110;
	95354 :	11101010;
	95353 :	11101110;
	95352 :	11111011;
	95351 :	11111101;
	95350 :	00101110;
	95349 :	00001110;
	95348 :	00100111;
	95347 :	11111000;
	95346 :	00000101;
	95345 :	00011110;
	95344 :	11110011;
	95343 :	00010101;
	95342 :	11101100;
	95341 :	00000100;
	95340 :	00000011;
	95339 :	11111101;
	95338 :	00001000;
	95337 :	11110010;
	95336 :	11111101;
	95335 :	11110111;
	95334 :	11110100;
	95333 :	00000000;
	95332 :	11010001;
	95331 :	11110001;
	95330 :	11111110;
	95329 :	00000010;
	95328 :	00010101;
	95327 :	11101001;
	95326 :	11100000;
	95325 :	00010001;
	95324 :	00100001;
	95323 :	00001101;
	95322 :	00000010;
	95321 :	00000010;
	95320 :	00001011;
	95319 :	00100111;
	95318 :	00110111;
	95317 :	00001101;
	95316 :	11111000;
	95315 :	11110110;
	95314 :	00001010;
	95313 :	00000000;
	95312 :	11100110;
	95311 :	00100111;
	95310 :	00000011;
	95309 :	00100000;
	95308 :	00001101;
	95307 :	11110011;
	95306 :	11110010;
	95305 :	00001111;
	95304 :	11111101;
	95303 :	00000000;
	95302 :	00001010;
	95301 :	00000110;
	95300 :	00000000;
	95299 :	11111110;
	95298 :	00000010;
	95297 :	00010010;
	95296 :	00000100;
	95295 :	11111010;
	95294 :	00101101;
	95293 :	11111101;
	95292 :	00000101;
	95291 :	11100111;
	95290 :	11111110;
	95289 :	11111001;
	95288 :	11111011;
	95287 :	00000001;
	95286 :	11110000;
	95285 :	00010010;
	95284 :	00001101;
	95283 :	00000011;
	95282 :	00001011;
	95281 :	00000001;
	95280 :	01000101;
	95279 :	00010100;
	95278 :	00100111;
	95277 :	00011001;
	95276 :	11110111;
	95275 :	00000010;
	95274 :	00000001;
	95273 :	00101010;
	95272 :	11110110;
	95271 :	11110001;
	95270 :	00010110;
	95269 :	00001110;
	95268 :	00010000;
	95267 :	11110001;
	95266 :	00001010;
	95265 :	00000001;
	95264 :	00010001;
	95263 :	11011000;
	95262 :	11011011;
	95261 :	00100100;
	95260 :	11100100;
	95259 :	11100011;
	95258 :	11111111;
	95257 :	11111010;
	95256 :	11101100;
	95255 :	00000011;
	95254 :	11111111;
	95253 :	00100101;
	95252 :	00001101;
	95251 :	00100001;
	95250 :	00010000;
	95249 :	00010000;
	95248 :	00011000;
	95247 :	00011011;
	95246 :	11110010;
	95245 :	11110001;
	95244 :	11111101;
	95243 :	11101011;
	95242 :	00101111;
	95241 :	00110101;
	95240 :	00010101;
	95239 :	11111110;
	95238 :	11111001;
	95237 :	00001010;
	95236 :	11110011;
	95235 :	11101100;
	95234 :	11111011;
	95233 :	00000000;
	95232 :	11110101;
	95231 :	00000101;
	95230 :	11111101;
	95229 :	11110100;
	95228 :	00010000;
	95227 :	11101101;
	95226 :	00001010;
	95225 :	11111010;
	95224 :	00100100;
	95223 :	00010110;
	95222 :	00011111;
	95221 :	00000010;
	95220 :	11110100;
	95219 :	00000101;
	95218 :	00010011;
	95217 :	11111111;
	95216 :	11110100;
	95215 :	00001110;
	95214 :	11111111;
	95213 :	00010100;
	95212 :	11100010;
	95211 :	00000011;
	95210 :	11111111;
	95209 :	11111111;
	95208 :	11100111;
	95207 :	00001111;
	95206 :	00010101;
	95205 :	00000000;
	95204 :	11111001;
	95203 :	00000110;
	95202 :	00001101;
	95201 :	00000011;
	95200 :	11100111;
	95199 :	00001111;
	95198 :	11111010;
	95197 :	00011111;
	95196 :	11111111;
	95195 :	00001100;
	95194 :	00010100;
	95193 :	11110110;
	95192 :	00000001;
	95191 :	11100111;
	95190 :	00000001;
	95189 :	11110010;
	95188 :	11110010;
	95187 :	11110100;
	95186 :	11111111;
	95185 :	11110001;
	95184 :	00000001;
	95183 :	00000111;
	95182 :	11111101;
	95181 :	11101100;
	95180 :	11101001;
	95179 :	00000100;
	95178 :	11010101;
	95177 :	00000101;
	95176 :	11110010;
	95175 :	11101111;
	95174 :	00010000;
	95173 :	11101001;
	95172 :	11111100;
	95171 :	00010110;
	95170 :	11101101;
	95169 :	11110010;
	95168 :	11111101;
	95167 :	11111001;
	95166 :	00001110;
	95165 :	00011100;
	95164 :	11111101;
	95163 :	11111101;
	95162 :	11101101;
	95161 :	11111111;
	95160 :	11100100;
	95159 :	11110110;
	95158 :	00000000;
	95157 :	11111111;
	95156 :	11100010;
	95155 :	00010000;
	95154 :	00001110;
	95153 :	11110011;
	95152 :	11111110;
	95151 :	11111100;
	95150 :	00000010;
	95149 :	00000101;
	95148 :	00000010;
	95147 :	00001001;
	95146 :	11101000;
	95145 :	11111111;
	95144 :	11110100;
	95143 :	00010100;
	95142 :	11101001;
	95141 :	11110110;
	95140 :	11101000;
	95139 :	00010100;
	95138 :	00001001;
	95137 :	11110000;
	95136 :	00001100;
	95135 :	00000101;
	95134 :	00010110;
	95133 :	00000011;
	95132 :	00001010;
	95131 :	00001011;
	95130 :	11111011;
	95129 :	00001101;
	95128 :	00001010;
	95127 :	00001010;
	95126 :	00010001;
	95125 :	00001100;
	95124 :	00000000;
	95123 :	00000110;
	95122 :	11111110;
	95121 :	00011101;
	95120 :	00101110;
	95119 :	11101010;
