-- begin_signature
-- weight_rom(DEPTH
-- 128
-- DATA_WIDTH
-- 32
-- ADDR_WIDTH
-- 7
-- INIT_FILE
-- "b1_int32.hex")
-- end_signature
WIDTH=32;
DEPTH=128;

ADDRESS_RADIX=UNS;
DATA_RADIX=BIN;

CONTENT BEGIN
	127 :	00000000000000000000001001001001;
	126 :	11111111111111111111100001001111;
	125 :	00000000000000000000010000011110;
	124 :	11111111111111111111110110010000;
	123 :	00000000000000000000011010100000;
	122 :	00000000000000000000001101000101;
	121 :	11111111111111111111000100011001;
	120 :	00000000000000000000010011110000;
	119 :	00000000000000000000001100010101;
	118 :	00000000000000000000001111100111;
	117 :	00000000000000000001100110100111;
	116 :	11111111111111111111101101000011;
	115 :	00000000000000000001010001111001;
	114 :	11111111111111111111111111110010;
	113 :	00000000000000000001010111011001;
	112 :	00000000000000000000101000011100;
	111 :	11111111111111111111001110101011;
	110 :	00000000000000000000111101001001;
	109 :	00000000000000000000011100010000;
	108 :	00000000000000000000001001111001;
	107 :	11111111111111111111100110000111;
	106 :	00000000000000000000001001001001;
	105 :	11111111111111111111111111011111;
	104 :	00000000000000000001100111100100;
	103 :	00000000000000000000110011111111;
	102 :	00000000000000000000100100101001;
	101 :	00000000000000000000110111101110;
	100 :	00000000000000000000010111111011;
	99 :	11111111111111111111110100011011;
	98 :	11111111111111111111110001110000;
	97 :	11111111111111111111111011101011;
	96 :	00000000000000000000011101001001;
	95 :	11111111111111111111110111001000;
	94 :	11111111111111111111101010000100;
	93 :	00000000000000000000000111111110;
	92 :	00000000000000000000101100000100;
	91 :	00000000000000000001001111110100;
	90 :	00000000000000000001110111101000;
	89 :	00000000000000000000010001011000;
	88 :	11111111111111111111111100011000;
	87 :	11111111111111111111001100010111;
	86 :	00000000000000000000000100100100;
	85 :	00000000000000000000100001000100;
	84 :	00000000000000000000110110010101;
	83 :	00000000000000000001110111011011;
	82 :	00000000000000000000110000011110;
	81 :	11111111111111111111011000110001;
	80 :	00000000000000000000001101110011;
	79 :	11111111111111111111110100101000;
	78 :	00000000000000000001000001110101;
	77 :	11111111111111111111001011110100;
	76 :	11111111111111111111111111011000;
	75 :	11111111111111111111110111111101;
	74 :	11111111111111111111010101100111;
	73 :	00000000000000000000001100111011;
	72 :	00000000000000000000000110111010;
	71 :	00000000000000000000000111000011;
	70 :	11111111111111111111101010101010;
	69 :	00000000000000000000001101110111;
	68 :	00000000000000000000001011011100;
	67 :	11111111111111111111100101001010;
	66 :	00000000000000000000100001000101;
	65 :	11111111111111111111110100001110;
	64 :	00000000000000000000101101010010;
	63 :	00000000000000000000101111110101;
	62 :	11111111111111111111011000101101;
	61 :	11111111111111111111101100111011;
	60 :	00000000000000000000001000111010;
	59 :	00000000000000000000011111011101;
	58 :	00000000000000000000010100110010;
	57 :	11111111111111111111110110011000;
	56 :	00000000000000000000111111100100;
	55 :	11111111111111111111100010011011;
	54 :	00000000000000000000011000100101;
	53 :	00000000000000000000100111001100;
	52 :	00000000000000000000010001101010;
	51 :	11111111111111111111111011001001;
	50 :	00000000000000000000100011010110;
	49 :	00000000000000000001000110111101;
	48 :	11111111111111111111101100001011;
	47 :	11111111111111111111101000000100;
	46 :	11111111111111111111111001000101;
	45 :	11111111111111111111111111101111;
	44 :	11111111111111111111110010001101;
	43 :	00000000000000000000010110011100;
	42 :	11111111111111111111111110010100;
	41 :	11111111111111111111111001100100;
	40 :	11111111111111111111111101010101;
	39 :	11111111111111111111101011011100;
	38 :	11111111111111111110111101111111;
	37 :	00000000000000000000011011000110;
	36 :	00000000000000000000110111110111;
	35 :	00000000000000000001000001110100;
	34 :	00000000000000000000010000101000;
	33 :	11111111111111111111110111010010;
	32 :	00000000000000000000011000111110;
	31 :	11111111111111111111110110011110;
	30 :	11111111111111111111100000110100;
	29 :	00000000000000000001011001101001;
	28 :	11111111111111111111100101011101;
	27 :	11111111111111111111010001011011;
	26 :	00000000000000000000001101100110;
	25 :	00000000000000000000100001001001;
	24 :	11111111111111111111001110111101;
	23 :	00000000000000000000101110111011;
	22 :	00000000000000000000001101101111;
	21 :	11111111111111111111111101110000;
	20 :	00000000000000000000000010110101;
	19 :	00000000000000000000011101111100;
	18 :	00000000000000000000111010011101;
	17 :	00000000000000000001111100001001;
	16 :	00000000000000000001001010001001;
	15 :	11111111111111111111101111111011;
	14 :	00000000000000000000001100101011;
	13 :	11111111111111111111001111101000;
	12 :	00000000000000000001000110100011;
	11 :	00000000000000000000111000101010;
	10 :	00000000000000000000010001010010;
	9 :	00000000000000000000011001111111;
	8 :	00000000000000000001000110111110;
	7 :	11111111111111111110110111001101;
	6 :	11111111111111111111100111111100;
	5 :	11111111111111111111110110000110;
	4 :	00000000000000000001000110011010;
	3 :	11111111111111111111111001100011;
	2 :	11111111111111111111010110010100;
	1 :	00000000000000000000101011011100;
	0 :	00000000000000000000010000110111;
END;
